{
  "version": "1.0",
  "truncation": null,
  "padding": null,
  "added_tokens": [
    {
      "id": 0,
      "content": "<s>",
      "single_word": false,
      "lstrip": false,
      "rstrip": false,
      "normalized": false,
      "special": true
    },
    {
      "id": 1,
      "content": "</s>",
      "single_word": false,
      "lstrip": false,
      "rstrip": false,
      "normalized": false,
      "special": true
    },
    {
      "id": 2,
      "content": "<pad>",
      "single_word": false,
      "lstrip": false,
      "rstrip": false,
      "normalized": false,
      "special": true
    },
    {
      "id": 3,
      "content": "<unk>",
      "single_word": false,
      "lstrip": false,
      "rstrip": false,
      "normalized": false,
      "special": true
    }
  ],
  "normalizer": null,
  "pre_tokenizer": {
    "type": "ByteLevel",
    "add_prefix_space": false,
    "trim_offsets": true,
    "use_regex": true
  },
  "post_processor": null,
  "decoder": {
    "type": "ByteLevel",
    "add_prefix_space": true,
    "trim_offsets": true,
    "use_regex": true
  },
  "model": {
    "type": "BPE",
    "dropout": null,
    "unk_token": "<unk>",
    "continuing_subword_prefix": null,
    "end_of_word_suffix": null,
    "fuse_unk": false,
    "byte_fallback": false,
    "ignore_merges": false,
    "vocab": {
      "<s>": 0,
      "</s>": 1,
      "<pad>": 2,
      "<unk>": 3,
      "!": 4,
      "\"": 5,
      "#": 6,
      "$": 7,
      "%": 8,
      "&": 9,
      "'": 10,
      "(": 11,
      ")": 12,
      "*": 13,
      "+": 14,
      ",": 15,
      "-": 16,
      ".": 17,
      "/": 18,
      "0": 19,
      "1": 20,
      "2": 21,
      "3": 22,
      "4": 23,
      "5": 24,
      "6": 25,
      "7": 26,
      "8": 27,
      "9": 28,
      ":": 29,
      ";": 30,
      "<": 31,
      "=": 32,
      ">": 33,
      "?": 34,
      "@": 35,
      "A": 36,
      "B": 37,
      "C": 38,
      "D": 39,
      "E": 40,
      "F": 41,
      "G": 42,
      "H": 43,
      "I": 44,
      "J": 45,
      "K": 46,
      "L": 47,
      "M": 48,
      "N": 49,
      "O": 50,
      "P": 51,
      "Q": 52,
      "R": 53,
      "S": 54,
      "T": 55,
      "U": 56,
      "V": 57,
      "W": 58,
      "X": 59,
      "Y": 60,
      "Z": 61,
      "[": 62,
      "\\": 63,
      "]": 64,
      "^": 65,
      "_": 66,
      "`": 67,
      "a": 68,
      "b": 69,
      "c": 70,
      "d": 71,
      "e": 72,
      "f": 73,
      "g": 74,
      "h": 75,
      "i": 76,
      "j": 77,
      "k": 78,
      "l": 79,
      "m": 80,
      "n": 81,
      "o": 82,
      "p": 83,
      "q": 84,
      "r": 85,
      "s": 86,
      "t": 87,
      "u": 88,
      "v": 89,
      "w": 90,
      "x": 91,
      "y": 92,
      "z": 93,
      "{": 94,
      "|": 95,
      "}": 96,
      "~": 97,
      "¡": 98,
      "¢": 99,
      "£": 100,
      "¤": 101,
      "¥": 102,
      "¦": 103,
      "§": 104,
      "¨": 105,
      "©": 106,
      "ª": 107,
      "«": 108,
      "¬": 109,
      "®": 110,
      "¯": 111,
      "°": 112,
      "±": 113,
      "²": 114,
      "³": 115,
      "´": 116,
      "µ": 117,
      "¶": 118,
      "·": 119,
      "¸": 120,
      "¹": 121,
      "º": 122,
      "»": 123,
      "¼": 124,
      "½": 125,
      "¾": 126,
      "¿": 127,
      "À": 128,
      "Á": 129,
      "Â": 130,
      "Ã": 131,
      "Ä": 132,
      "Å": 133,
      "Æ": 134,
      "Ç": 135,
      "È": 136,
      "É": 137,
      "Ê": 138,
      "Ë": 139,
      "Ì": 140,
      "Í": 141,
      "Î": 142,
      "Ï": 143,
      "Ð": 144,
      "Ñ": 145,
      "Ò": 146,
      "Ó": 147,
      "Ô": 148,
      "Õ": 149,
      "Ö": 150,
      "×": 151,
      "Ø": 152,
      "Ù": 153,
      "Ú": 154,
      "Û": 155,
      "Ü": 156,
      "Ý": 157,
      "Þ": 158,
      "ß": 159,
      "à": 160,
      "á": 161,
      "â": 162,
      "ã": 163,
      "ä": 164,
      "å": 165,
      "æ": 166,
      "ç": 167,
      "è": 168,
      "é": 169,
      "ê": 170,
      "ë": 171,
      "ì": 172,
      "í": 173,
      "î": 174,
      "ï": 175,
      "ð": 176,
      "ñ": 177,
      "ò": 178,
      "ó": 179,
      "ô": 180,
      "õ": 181,
      "ö": 182,
      "÷": 183,
      "ø": 184,
      "ù": 185,
      "ú": 186,
      "û": 187,
      "ü": 188,
      "ý": 189,
      "þ": 190,
      "ÿ": 191,
      "Ā": 192,
      "ā": 193,
      "Ă": 194,
      "ă": 195,
      "Ą": 196,
      "ą": 197,
      "Ć": 198,
      "ć": 199,
      "Ĉ": 200,
      "ĉ": 201,
      "Ċ": 202,
      "ċ": 203,
      "Č": 204,
      "č": 205,
      "Ď": 206,
      "ď": 207,
      "Đ": 208,
      "đ": 209,
      "Ē": 210,
      "ē": 211,
      "Ĕ": 212,
      "ĕ": 213,
      "Ė": 214,
      "ė": 215,
      "Ę": 216,
      "ę": 217,
      "Ě": 218,
      "ě": 219,
      "Ĝ": 220,
      "ĝ": 221,
      "Ğ": 222,
      "ğ": 223,
      "Ġ": 224,
      "ġ": 225,
      "Ģ": 226,
      "ģ": 227,
      "Ĥ": 228,
      "ĥ": 229,
      "Ħ": 230,
      "ħ": 231,
      "Ĩ": 232,
      "ĩ": 233,
      "Ī": 234,
      "ī": 235,
      "Ĭ": 236,
      "ĭ": 237,
      "Į": 238,
      "į": 239,
      "İ": 240,
      "ı": 241,
      "Ĳ": 242,
      "ĳ": 243,
      "Ĵ": 244,
      "ĵ": 245,
      "Ķ": 246,
      "ķ": 247,
      "ĸ": 248,
      "Ĺ": 249,
      "ĺ": 250,
      "Ļ": 251,
      "ļ": 252,
      "Ľ": 253,
      "ľ": 254,
      "Ŀ": 255,
      "ŀ": 256,
      "Ł": 257,
      "ł": 258,
      "Ń": 259,
      "Ġt": 260,
      "he": 261,
      "Ġa": 262,
      "in": 263,
      "er": 264,
      "on": 265,
      "Ġthe": 266,
      "re": 267,
      "Ġo": 268,
      "an": 269,
      "at": 270,
      "Ġs": 271,
      "en": 272,
      "is": 273,
      "ed": 274,
      "es": 275,
      "or": 276,
      "Ġc": 277,
      "Ġw": 278,
      "al": 279,
      "it": 280,
      "Ġof": 281,
      "ar": 282,
      "Ġan": 283,
      "Ġin": 284,
      "Ġb": 285,
      "Ġf": 286,
      "Ġp": 287,
      "ic": 288,
      "Ġand": 289,
      "ing": 290,
      "as": 291,
      "ion": 292,
      "Ġm": 293,
      "ro": 294,
      "Ġto": 295,
      "Ġd": 296,
      "le": 297,
      "Ġh": 298,
      "ĠA": 299,
      "ou": 300,
      "ent": 301,
      "st": 302,
      "il": 303,
      "om": 304,
      "Ġre": 305,
      "ĠT": 306,
      "ĠS": 307,
      "ĠC": 308,
      "el": 309,
      "Ġ1": 310,
      "ct": 311,
      "ol": 312,
      "Ġe": 313,
      "Ġl": 314,
      "Ġth": 315,
      "Ġn": 316,
      "am": 317,
      "ĠB": 318,
      "ch": 319,
      "et": 320,
      "us": 321,
      "ad": 322,
      "ur": 323,
      "ly": 324,
      "ation": 325,
      "Ġ(": 326,
      "iv": 327,
      "id": 328,
      "ĠM": 329,
      "im": 330,
      "ce": 331,
      "Ġis": 332,
      "un": 333,
      "ot": 334,
      "Ġfor": 335,
      "ig": 336,
      "ut": 337,
      "ist": 338,
      "ir": 339,
      "Ġg": 340,
      "Ġas": 341,
      "ĠI": 342,
      "ers": 343,
      "Ġbe": 344,
      "Ġon": 345,
      "ow": 346,
      "ay": 347,
      "Ġwas": 348,
      "ĠP": 349,
      "Ġ2": 350,
      "ĠThe": 351,
      "ul": 352,
      "ith": 353,
      "ra": 354,
      "00": 355,
      "her": 356,
      "ĠH": 357,
      "Ġst": 358,
      "ter": 359,
      "em": 360,
      "th": 361,
      "Ġwith": 362,
      "Ġal": 363,
      "um": 364,
      "Ġcon": 365,
      "ver": 366,
      "Ġby": 367,
      "os": 368,
      "ĠR": 369,
      "and": 370,
      "Ġthat": 371,
      "ĠF": 372,
      "Ġwh": 373,
      "Ġ19": 374,
      "ĠW": 375,
      "ĠD": 376,
      "op": 377,
      "'s": 378,
      "ĠG": 379,
      "ĠL": 380,
      "ĠE": 381,
      "est": 382,
      "ag": 383,
      "Ġpro": 384,
      "ri": 385,
      "od": 386,
      "av": 387,
      "âĢ": 388,
      "ĠN": 389,
      "ant": 390,
      "ac": 391,
      "rom": 392,
      "Ġde": 393,
      "Ġcom": 394,
      "Ġat": 395,
      "Ġv": 396,
      "Ġor": 397,
      "if": 398,
      "Ġare": 399,
      "Ġ\"": 400,
      "ain": 401,
      "Ġit": 402,
      "ity": 403,
      "oun": 404,
      "ies": 405,
      "ĠJ": 406,
      "ab": 407,
      "res": 408,
      "ian": 409,
      "Ġfrom": 410,
      "ud": 411,
      "âĢĵ": 412,
      "Ġhe": 413,
      "ate": 414,
      "pe": 415,
      "Ġsu": 416,
      "Ġse": 417,
      "oc": 418,
      "ill": 419,
      "ort": 420,
      "qu": 421,
      "Ġex": 422,
      "ĠIn": 423,
      "ore": 424,
      "ich": 425,
      "all": 426,
      "ld": 427,
      "ĠO": 428,
      "art": 429,
      "Ġr": 430,
      "ess": 431,
      "ber": 432,
      "ia": 433,
      "ak": 434,
      "ew": 435,
      "igh": 436,
      "ial": 437,
      "ard": 438,
      "ive": 439,
      "ment": 440,
      "Ġhis": 441,
      "og": 442,
      "se": 443,
      "ical": 444,
      "pp": 445,
      "ĠU": 446,
      "ated": 447,
      "Ġun": 448,
      "pt": 449,
      "ost": 450,
      "end": 451,
      "ere": 452,
      "our": 453,
      "ish": 454,
      "Ġch": 455,
      "gh": 456,
      "ĠK": 457,
      "Ġpl": 458,
      "Ġwhich": 459,
      "ge": 460,
      "ary": 461,
      "Ġ20": 462,
      "Ġus": 463,
      "ction": 464,
      "te": 465,
      "mer": 466,
      "The": 467,
      "ther": 468,
      "ine": 469,
      "ip": 470,
      "ong": 471,
      "Ġwere": 472,
      "ave": 473,
      "ure": 474,
      "ast": 475,
      "ĠCh": 476,
      "up": 477,
      "Ġle": 478,
      "ov": 479,
      "ell": 480,
      "ear": 481,
      "cl": 482,
      "ame": 483,
      "so": 484,
      "ĠâĢĵ": 485,
      "Ġcomp": 486,
      "du": 487,
      "ord": 488,
      "Ġhas": 489,
      "ap": 490,
      "Ġnot": 491,
      "ub": 492,
      "rit": 493,
      "ight": 494,
      "ous": 495,
      "Ġk": 496,
      "ran": 497,
      "19": 498,
      "ks": 499,
      "Ġsh": 500,
      "),": 501,
      "cc": 502,
      "ire": 503,
      "ome": 504,
      "Ġar": 505,
      "Ġhave": 506,
      "ition": 507,
      "Ġy": 508,
      "ff": 509,
      "ĠSt": 510,
      "iz": 511,
      "Ġalso": 512,
      "ry": 513,
      "ss": 514,
      "per": 515,
      "ult": 516,
      "ust": 517,
      "der": 518,
      "any": 519,
      "ib": 520,
      "Ġ200": 521,
      "Ġcont": 522,
      "Ġ3": 523,
      "ide": 524,
      "ass": 525,
      "ations": 526,
      "ie": 527,
      "ect": 528,
      "irst": 529,
      "ue": 530,
      "age": 531,
      "ign": 532,
      "Ġad": 533,
      "Ġhad": 534,
      "ican": 535,
      "ence": 536,
      "ount": 537,
      "ach": 538,
      "are": 539,
      "Ġcl": 540,
      "fer": 541,
      "ĠV": 542,
      "Ġper": 543,
      "pl": 544,
      "ser": 545,
      "Ġtheir": 546,
      "tern": 547,
      "hen": 548,
      "Ġits": 549,
      "Ġwor": 550,
      "Ġint": 551,
      "ces": 552,
      "ally": 553,
      "Ġab": 554,
      "ater": 555,
      "con": 556,
      "Ġfirst": 557,
      "ru": 558,
      "ang": 559,
      "ree": 560,
      "ĠĊ": 561,
      "ĠUn": 562,
      "ph": 563,
      "ack": 564,
      "ory": 565,
      "ĠAl": 566,
      "Ġpart": 567,
      "Ġ201": 568,
      "ĠAn": 569,
      "Ġall": 570,
      ">>": 571,
      "<<": 572,
      "ice": 573,
      "Ġbut": 574,
      "ates": 575,
      "Ġres": 576,
      "ould": 577,
      "act": 578,
      "ime": 579,
      "clud": 580,
      "Ġother": 581,
      "fter": 582,
      "wo": 583,
      "ok": 584,
      "Ġone": 585,
      "Ġte": 586,
      "ĠTh": 587,
      "Ġcan": 588,
      "##": 589,
      "und": 590,
      "Ġ=": 591,
      "ens": 592,
      "port": 593,
      "out": 594,
      "ren": 595,
      "Ġdis": 596,
      "ions": 597,
      "ey": 598,
      "orm": 599,
      "over": 600,
      ").": 601,
      "own": 602,
      "hed": 603,
      "ely": 604,
      "Ġ18": 605,
      "Ġthis": 606,
      "Ġbec": 607,
      "Ġro": 608,
      "ound": 609,
      "oll": 610,
      "erm": 611,
      "Ġyear": 612,
      "ts": 613,
      "Ġim": 614,
      "Ġ4": 615,
      "20": 616,
      "ĠĠ": 617,
      "ace": 618,
      "Ġen": 619,
      "ĠAmer": 620,
      "ile": 621,
      "Ġbeen": 622,
      "Ġ$": 623,
      "Ġne": 624,
      "Ġinclud": 625,
      "land": 626,
      "In": 627,
      "ric": 628,
      "ational": 629,
      "ents": 630,
      "ugh": 631,
      "ĠHe": 632,
      "les": 633,
      "Ġwho": 634,
      "able": 635,
      "ress": 636,
      "Ġsp": 637,
      "vel": 638,
      "ced": 639,
      "ance": 640,
      "Ġj": 641,
      "ik": 642,
      "ited": 643,
      "ep": 644,
      "xt": 645,
      "Ġsc": 646,
      "Ġtwo": 647,
      "olog": 648,
      "we": 649,
      "Ġpre": 650,
      "istant": 651,
      "ors": 652,
      "Ġ5": 653,
      "Ġag": 654,
      "uring": 655,
      "Ġcomm": 656,
      "Ġmore": 657,
      "ough": 658,
      "ite": 659,
      "ĠAr": 660,
      "ubl": 661,
      "ĠIt": 662,
      "ade": 663,
      "Ġplay": 664,
      "Ass": 665,
      "Ġnum": 666,
      "ase": 667,
      "Ġrec": 668,
      "Ġthey": 669,
      "User": 670,
      "Assistant": 671,
      "Ġmany": 672,
      "Ġdes": 673,
      "Ġsy": 674,
      "ĠY": 675,
      "ron": 676,
      "ath": 677,
      "aw": 678,
      "ĠAmerican": 679,
      "Ġser": 680,
      "ose": 681,
      "Ġthan": 682,
      "ans": 683,
      "old": 684,
      "ism": 685,
      "amp": 686,
      "Ġev": 687,
      "Ġspe": 688,
      "ics": 689,
      "Ġsuch": 690,
      "Ġher": 691,
      "ark": 692,
      "Ġmost": 693,
      "ied": 694,
      "ob": 695,
      "Ġused": 696,
      "Ġover": 697,
      "Ġrel": 698,
      "ft": 699,
      "Ġcent": 700,
      "ĠEn": 701,
      "Ġafter": 702,
      "aus": 703,
      "Ġinto": 704,
      "Ġwe": 705,
      "Ġgro": 706,
      "oin": 707,
      "ings": 708,
      "Ġform": 709,
      "ased": 710,
      "als": 711,
      "Ġ199": 712,
      "Ġme": 713,
      "000": 714,
      "wn": 715,
      "Ġcons": 716,
      "ons": 717,
      "Ġprodu": 718,
      "ury": 719,
      "Ġpr": 720,
      "lect": 721,
      "Ġout": 722,
      "ular": 723,
      "Ġbet": 724,
      "form": 725,
      "ind": 726,
      "ild": 727,
      "Ġpe": 728,
      "ious": 729,
      "rib": 730,
      "Ġ<<": 731,
      "Ġatt": 732,
      "ood": 733,
      "ug": 734,
      "Ġ6": 735,
      "Ġam": 736,
      "ivers": 737,
      "ail": 738,
      "rough": 739,
      "reat": 740,
      "Ġear": 741,
      "oth": 742,
      "Ġbo": 743,
      "here": 744,
      "Ġgen": 745,
      "Ġtime": 746,
      "ake": 747,
      "Ġreg": 748,
      "orn": 749,
      "iss": 750,
      "Ġapp": 751,
      "ec": 752,
      "ars": 753,
      "Ġso": 754,
      "Âł": 755,
      "Ġact": 756,
      "Ġnew": 757,
      "ram": 758,
      "ople": 759,
      "ted": 760,
      "rans": 761,
      "ween": 762,
      "gan": 763,
      "Ġup": 764,
      "Ġkn": 765,
      "Ġnumber": 766,
      "Ġsome": 767,
      "Ġac": 768,
      "red": 769,
      "Ġonly": 770,
      "ward": 771,
      "Ġra": 772,
      "ral": 773,
      "arg": 774,
      "Ġsub": 775,
      "Ġwould": 776,
      "Ġdo": 777,
      "urn": 778,
      "Ġthere": 779,
      "Ġoff": 780,
      "ays": 781,
      "one": 782,
      "Ġpol": 783,
      "ond": 784,
      "Ġunder": 785,
      "ĠNew": 786,
      "Ġph": 787,
      "ince": 788,
      "Ġacc": 789,
      "Ġbetween": 790,
      "ists": 791,
      "stem": 792,
      "ool": 793,
      "ah": 794,
      "gl": 795,
      "ities": 796,
      "ys": 797,
      "Ġshe": 798,
      "ĠWh": 799,
      "Ġyears": 800,
      "ve": 801,
      "ual": 802,
      "Ġwhen": 803,
      "cial": 804,
      "ific": 805,
      "ĠSe": 806,
      "hes": 807,
      "Ġfl": 808,
      "ative": 809,
      "ne": 810,
      "18": 811,
      "uc": 812,
      "Ġinc": 813,
      "ved": 814,
      "io": 815,
      "ten": 816,
      "rad": 817,
      "ines": 818,
      "50": 819,
      "tal": 820,
      "ished": 821,
      "Ġqu": 822,
      "Ġthem": 823,
      "Ġcol": 824,
      "ict": 825,
      "Ġmon": 826,
      "ilm": 827,
      "Ġ198": 828,
      "Ġcount": 829,
      "ĠCom": 830,
      "Ġinter": 831,
      "ĠThis": 832,
      "overn": 833,
      "oh": 834,
      "cond": 835,
      "Con": 836,
      "Ġmod": 837,
      "Ġpop": 838,
      "ĠHow": 839,
      "Ġhim": 840,
      "\".": 841,
      "Ġstud": 842,
      "Ã©": 843,
      "10": 844,
      "Ġwork": 845,
      "Ġrem": 846,
      "ern": 847,
      "Ġbl": 848,
      "ident": 849,
      "iet": 850,
      "Ġbu": 851,
      "Ġind": 852,
      "ick": 853,
      "ever": 854,
      "Ġduring": 855,
      "ember": 856,
      "Ġpubl": 857,
      "ork": 858,
      "oy": 859,
      "text": 860,
      "aj": 861,
      "ock": 862,
      "velop": 863,
      "arch": 864,
      "ating": 865,
      "ower": 866,
      "inal": 867,
      "Ġ7": 868,
      "Ġco": 869,
      "\",": 870,
      "outh": 871,
      "ollow": 872,
      "Ġass": 873,
      "Ġthrough": 874,
      "uch": 875,
      "ann": 876,
      "Ġsystem": 877,
      "Ġdef": 878,
      "Ġtrans": 879,
      "Ġtra": 880,
      "ium": 881,
      "Ġmay": 882,
      "fore": 883,
      "hip": 884,
      "Ġpres": 885,
      "Ġ8": 886,
      "ĠLe": 887,
      "ix": 888,
      "eral": 889,
      "att": 890,
      "ĠUnited": 891,
      "ily": 892,
      "Ġthree": 893,
      "ĊĠ": 894,
      "Ġpeople": 895,
      "very": 896,
      "uro": 897,
      "ins": 898,
      "Ġeach": 899,
      "ject": 900,
      "ton": 901,
      "Ġ197": 902,
      "ution": 903,
      "Ġabout": 904,
      "Ġmin": 905,
      "Ġuse": 906,
      "Ġinv": 907,
      "Ġcall": 908,
      "ause": 909,
      "ĠDe": 910,
      "Ġ10": 911,
      "Ġfound": 912,
      "ames": 913,
      "Ġmet": 914,
      "Ġdif": 915,
      "ered": 916,
      "Ġem": 917,
      "Ġfe": 918,
      "ĠRe": 919,
      "Ġest": 920,
      "Ġwhere": 921,
      "ision": 922,
      "ĠAt": 923,
      "ll": 924,
      "Ġinst": 925,
      "Ġset": 926,
      "Ġman": 927,
      "Context": 928,
      "Ġtotal": 929,
      "ures": 930,
      "Ġpos": 931,
      "chool": 932,
      "cent": 933,
      "ĠCon": 934,
      "Ġadd": 935,
      "Ġsupp": 936,
      "Ġfilm": 937,
      "Ġwill": 938,
      "orth": 939,
      "iel": 940,
      "ball": 941,
      "ants": 942,
      "Ġknown": 943,
      "Ġthen": 944,
      "Ġdevelop": 945,
      "ale": 946,
      "imes": 947,
      "Ġsecond": 948,
      "ology": 949,
      "ason": 950,
      "round": 951,
      "ife": 952,
      "Ġwrit": 953,
      "cept": 954,
      "ences": 955,
      "Ġap": 956,
      "man": 957,
      "Ġvar": 958,
      "Ġmus": 959,
      "ier": 960,
      "ĠAs": 961,
      "Ġagain": 962,
      "Ġdec": 963,
      "ient": 964,
      "Ġmade": 965,
      "ized": 966,
      "60": 967,
      "Ġfollow": 968,
      "Ġob": 969,
      "ments": 970,
      "Ġend": 971,
      "Ġloc": 972,
      ".\"": 973,
      "its": 974,
      "fl": 975,
      "12": 976,
      "emb": 977,
      "Ġgovern": 978,
      "ike": 979,
      "Ġhow": 980,
      "Ġdist": 981,
      "Ġincluding": 982,
      "Ġexp": 983,
      "az": 984,
      "cy": 985,
      "Ġwhile": 986,
      "Ġdid": 987,
      "Ġcar": 988,
      "Ġret": 989,
      "Ġprov": 990,
      "hem": 991,
      "ement": 992,
      "ually": 993,
      "cess": 994,
      "Ġgroup": 995,
      "glish": 996,
      "Ġthese": 997,
      "Ġboth": 998,
      "ck": 999,
      "other": 1000,
      "ert": 1001,
      "ise": 1002,
      "angu": 1003,
      "ural": 1004,
      "ages": 1005,
      "Ġent": 1006,
      "ctions": 1007,
      "Ġart": 1008,
      "ĠBrit": 1009,
      "pr": 1010,
      "Ġaut": 1011,
      "Ġwell": 1012,
      "ived": 1013,
      "air": 1014,
      "ract": 1015,
      "ues": 1016,
      "illion": 1017,
      "ature": 1018,
      "oot": 1019,
      "Ġlater": 1020,
      "els": 1021,
      "Ġhist": 1022,
      "Ġbeing": 1023,
      "Ġcity": 1024,
      "ank": 1025,
      "ĠZ": 1026,
      "ically": 1027,
      "raph": 1028,
      "rop": 1029,
      "iversity": 1030,
      "Ġsur": 1031,
      "Ġno": 1032,
      "rist": 1033,
      "Ġmov": 1034,
      "Ġ-": 1035,
      "Ġmain": 1036,
      "ĠIs": 1037,
      "Ġbecame": 1038,
      "Ġsign": 1039,
      "ina": 1040,
      "lex": 1041,
      "Ġworld": 1042,
      "Ġchar": 1043,
      "Ġsing": 1044,
      "ather": 1045,
      "ĠSh": 1046,
      "Ġfour": 1047,
      "Ġhigh": 1048,
      "ible": 1049,
      "uss": 1050,
      "ax": 1051,
      "ĠSc": 1052,
      "inn": 1053,
      "orld": 1054,
      "Ġeff": 1055,
      "erson": 1056,
      "ĠInd": 1057,
      "urope": 1058,
      "Ġele": 1059,
      "ird": 1060,
      "ĠStates": 1061,
      "Ġcentury": 1062,
      "ajor": 1063,
      "Ġ9": 1064,
      "Ġext": 1065,
      "ians": 1066,
      "ute": 1067,
      "Ġcalled": 1068,
      "irect": 1069,
      "Ġmed": 1070,
      "abl": 1071,
      "elf": 1072,
      "Ġdiffer": 1073,
      "Ġrep": 1074,
      "40": 1075,
      "15": 1076,
      "200": 1077,
      "the": 1078,
      "ĠEnglish": 1079,
      "ĠCol": 1080,
      "Ġany": 1081,
      "ĠFor": 1082,
      "ield": 1083,
      "Ġ15": 1084,
      "Ġcre": 1085,
      "ĠAm": 1086,
      "ĠBl": 1087,
      "Ġlong": 1088,
      "30": 1089,
      "ĠOn": 1090,
      "Ġed": 1091,
      "Ġorig": 1092,
      "ty": 1093,
      "ĠJoh": 1094,
      "Ġspec": 1095,
      "iew": 1096,
      "ility": 1097,
      "ulation": 1098,
      "ĠAust": 1099,
      "ĠGerm": 1100,
      "Ġ17": 1101,
      "Ġimp": 1102,
      "ek": 1103,
      "Ġconst": 1104,
      "ĠSp": 1105,
      "Ġ12": 1106,
      "Ġair": 1107,
      "ĠEurope": 1108,
      "ĠWar": 1109,
      "Ġsm": 1110,
      "ets": 1111,
      "ives": 1112,
      "ĠAf": 1113,
      "####": 1114,
      "Ġlead": 1115,
      "oman": 1116,
      "pect": 1117,
      "Ġsever": 1118,
      "Ġterm": 1119,
      "Ġearly": 1120,
      "ĠFran": 1121,
      "Ġpolit": 1122,
      "ĠPro": 1123,
      "mp": 1124,
      "ful": 1125,
      "ĠAd": 1126,
      "ĠWorld": 1127,
      "Ġbro": 1128,
      "Ġfam": 1129,
      "yp": 1130,
      "Ġdep": 1131,
      "Ġstate": 1132,
      "apt": 1133,
      "arm": 1134,
      "Ġant": 1135,
      "ĠCl": 1136,
      "Ġrecord": 1137,
      "Ġrele": 1138,
      "ting": 1139,
      "iver": 1140,
      "Ġcontin": 1141,
      "Ġlangu": 1142,
      "Ġsim": 1143,
      "way": 1144,
      "Ġsame": 1145,
      "Ġ196": 1146,
      "ital": 1147,
      "ined": 1148,
      "ange": 1149,
      "ash": 1150,
      "Ġbefore": 1151,
      "ĠCan": 1152,
      "ĠJohn": 1153,
      "Ġresult": 1154,
      "ley": 1155,
      "Ġbecause": 1156,
      "Ġremain": 1157,
      "Ġappe": 1158,
      "aid": 1159,
      "Ġ.": 1160,
      "Ġpartic": 1161,
      "Ġshow": 1162,
      "Ġown": 1163,
      "iam": 1164,
      "Ġoper": 1165,
      "Ġ16": 1166,
      "Ġbel": 1167,
      "Ġmuch": 1168,
      "enn": 1169,
      "Ġdisc": 1170,
      "Ġserv": 1171,
      "Ġlarg": 1172,
      "ble": 1173,
      "Ġmil": 1174,
      "ional": 1175,
      "rench": 1176,
      "Ġprog": 1177,
      "Ġ+": 1178,
      "ouse": 1179,
      "til": 1180,
      "Ġmajor": 1181,
      "ared": 1182,
      "my": 1183,
      "chn": 1184,
      "ven": 1185,
      "Ġteam": 1186,
      "vent": 1187,
      "aking": 1188,
      "ruct": 1189,
      "Ġagainst": 1190,
      "Ġelect": 1191,
      "ired": 1192,
      "Ġfin": 1193,
      "Ġgovernment": 1194,
      "ograph": 1195,
      "urch": 1196,
      "Ġschool": 1197,
      "ex": 1198,
      "Ġname": 1199,
      "Ġsl": 1200,
      "ee": 1201,
      "conom": 1202,
      "ĠMar": 1203,
      "Ġdesc": 1204,
      "atic": 1205,
      "acter": 1206,
      "Ġsince": 1207,
      "Ġocc": 1208,
      "Ġdesign": 1209,
      "ae": 1210,
      "ccess": 1211,
      "ternational": 1212,
      "16": 1213,
      "gy": 1214,
      "Ġdirect": 1215,
      "led": 1216,
      "âĢĶ": 1217,
      "ĠChrist": 1218,
      "ĠYork": 1219,
      "arge": 1220,
      "Ġincre": 1221,
      "osed": 1222,
      "Ġsupport": 1223,
      "min": 1224,
      "yn": 1225,
      "ĠBritish": 1226,
      "Ġcould": 1227,
      "Ġseveral": 1228,
      "Ġpoin": 1229,
      "iod": 1230,
      "Ġmusic": 1231,
      "Ġoften": 1232,
      "Ġconsid": 1233,
      "ides": 1234,
      "Ġpublic": 1235,
      "Ġseason": 1236,
      "though": 1237,
      "Ġoffic": 1238,
      "Ġsmall": 1239,
      "ĠBo": 1240,
      "ĠUniversity": 1241,
      "eng": 1242,
      "ĠFrench": 1243,
      "Ġlaw": 1244,
      "Ġif": 1245,
      "eb": 1246,
      "ĠComm": 1247,
      "Ġestabl": 1248,
      "ĠPh": 1249,
      "ries": 1250,
      "Ġcommon": 1251,
      "Ġday": 1252,
      "17": 1253,
      "Ġhum": 1254,
      "ĠCar": 1255,
      "ica": 1256,
      "rid": 1257,
      "Ġuntil": 1258,
      "ene": 1259,
      "Ġcountry": 1260,
      "Ġclass": 1261,
      "hor": 1262,
      "Ġback": 1263,
      "Ġ194": 1264,
      "Ġperform": 1265,
      "ample": 1266,
      "oci": 1267,
      "ording": 1268,
      "to": 1269,
      "omet": 1270,
      "Ġequ": 1271,
      "ience": 1272,
      "Ġneed": 1273,
      "ised": 1274,
      "ĠAb": 1275,
      "ided": 1276,
      "Ġcap": 1277,
      "ober": 1278,
      "Re": 1279,
      "Ġcontro": 1280,
      "iving": 1281,
      "Ġtr": 1282,
      "Ġwhat": 1283,
      "ively": 1284,
      "Ġland": 1285,
      "day": 1286,
      "ĠII": 1287,
      "gg": 1288,
      "Ġmat": 1289,
      "ĠĊĠĊ": 1290,
      "Ġop": 1291,
      "Ġorgan": 1292,
      "ices": 1293,
      "Ġtrad": 1294,
      "Ġlarge": 1295,
      "ours": 1296,
      "Ġinclude": 1297,
      "ĠWest": 1298,
      "ued": 1299,
      "Ġrun": 1300,
      "Ġdifferent": 1301,
      "Ġleg": 1302,
      "Ġ,": 1303,
      "Ġarea": 1304,
      "itions": 1305,
      "Ġann": 1306,
      "Ġperson": 1307,
      "ull": 1308,
      "ĠHowever": 1309,
      "Ġsuccess": 1310,
      "ĠPr": 1311,
      "Ġgo": 1312,
      "akes": 1313,
      "Ġprogram": 1314,
      "Ġcur": 1315,
      "ĠQ": 1316,
      "vers": 1317,
      "ke": 1318,
      "ross": 1319,
      "ĠOr": 1320,
      "ony": 1321,
      "Ġgu": 1322,
      "Ġrece": 1323,
      "utes": 1324,
      "Ġmar": 1325,
      "Ġcommun": 1326,
      "Ġsoc": 1327,
      "por": 1328,
      "Ġdeath": 1329,
      "ission": 1330,
      "Ġgener": 1331,
      "Ġlife": 1332,
      "Ġref": 1333,
      "yl": 1334,
      "Ġins": 1335,
      "amed": 1336,
      "Ġwater": 1337,
      "rodu": 1338,
      "ret": 1339,
      "ĠSouth": 1340,
      "ards": 1341,
      "14": 1342,
      "ring": 1343,
      "bum": 1344,
      "Ġexample": 1345,
      "Ġcult": 1346,
      "Ġsol": 1347,
      "ternal": 1348,
      "ris": 1349,
      "ink": 1350,
      "Ġcost": 1351,
      "Ġperiod": 1352,
      "ze": 1353,
      "Ġeffect": 1354,
      "Ġpower": 1355,
      "ves": 1356,
      "Ġaround": 1357,
      "oph": 1358,
      "Ġold": 1359,
      "ĠAustral": 1360,
      "ified": 1361,
      "ius": 1362,
      "row": 1363,
      "ove": 1364,
      "ague": 1365,
      "Ġinfl": 1366,
      "ĠCent": 1367,
      "Ġrequ": 1368,
      "omen": 1369,
      "Ġbas": 1370,
      "ferences": 1371,
      "ĠBe": 1372,
      "Ġleft": 1373,
      "Ġdoes": 1374,
      "inc": 1375,
      "Ġdet": 1376,
      "ats": 1377,
      "ration": 1378,
      "que": 1379,
      "resent": 1380,
      "embers": 1381,
      "Ġpar": 1382,
      "une": 1383,
      "gen": 1384,
      "ott": 1385,
      "Ġimport": 1386,
      "ox": 1387,
      "ĠUS": 1388,
      "by": 1389,
      "Ġnear": 1390,
      "ĠThey": 1391,
      "let": 1392,
      "Ġallow": 1393,
      "iety": 1394,
      "Ġpopulation": 1395,
      "ootball": 1396,
      "udd": 1397,
      "rand": 1398,
      "ator": 1399,
      "25": 1400,
      "ĠJan": 1401,
      "Ġeconom": 1402,
      "ended": 1403,
      "Ġcor": 1404,
      "ought": 1405,
      "Ġstart": 1406,
      "ization": 1407,
      "Ġseries": 1408,
      "Ġlit": 1409,
      "alf": 1410,
      "aving": 1411,
      "Ġval": 1412,
      "ĠShe": 1413,
      "Ġdr": 1414,
      "aim": 1415,
      "ained": 1416,
      "Ġwar": 1417,
      "Ġ'": 1418,
      "Ġbased": 1419,
      "ĠNational": 1420,
      "med": 1421,
      "21": 1422,
      "Ġmark": 1423,
      "Ġ14": 1424,
      "Ġdiv": 1425,
      "ai": 1426,
      "Ġfun": 1427,
      "com": 1428,
      "Ġ195": 1429,
      "Ġbuild": 1430,
      "itary": 1431,
      "ĠMay": 1432,
      "ĠKing": 1433,
      "Ġorder": 1434,
      "Ġthose": 1435,
      "Ġeng": 1436,
      "au": 1437,
      "..": 1438,
      "Ġrest": 1439,
      "dom": 1440,
      "ately": 1441,
      "raft": 1442,
      "ĠThere": 1443,
      "Ġnow": 1444,
      "Ġbegan": 1445,
      "ize": 1446,
      "ister": 1447,
      "Ġprocess": 1448,
      "Ġ30": 1449,
      "Ġgame": 1450,
      "An": 1451,
      "iven": 1452,
      "Ġpo": 1453,
      "ried": 1454,
      "199": 1455,
      "oss": 1456,
      "ights": 1457,
      "Ġmillion": 1458,
      "Ġreturn": 1459,
      "son": 1460,
      "Ġtimes": 1461,
      "hest": 1462,
      "Ġpass": 1463,
      "tle": 1464,
      "Ġfollowing": 1465,
      "aced": 1466,
      "Ġamong": 1467,
      "par": 1468,
      "ales": 1469,
      "Ġlast": 1470,
      "ĠMus": 1471,
      "ival": 1472,
      "ently": 1473,
      "Ġnon": 1474,
      "ains": 1475,
      "ĠCanad": 1476,
      "Ġalbum": 1477,
      "ĠCity": 1478,
      "Ġauthor": 1479,
      "Ġchild": 1480,
      "Ġevery": 1481,
      "wards": 1482,
      "ript": 1483,
      "ugust": 1484,
      "ĠNorth": 1485,
      "Ġappro": 1486,
      "Ġdescrib": 1487,
      "ĠIf": 1488,
      "Ġhome": 1489,
      "ases": 1490,
      "ĠGerman": 1491,
      "ĠWhat": 1492,
      "rew": 1493,
      "Ġeven": 1494,
      "Ġlike": 1495,
      "rent": 1496,
      "ness": 1497,
      "80": 1498,
      "ĠPl": 1499,
      "ĠBar": 1500,
      "read": 1501,
      "Ġbus": 1502,
      "lands": 1503,
      "ery": 1504,
      "Ġvers": 1505,
      "Ġmake": 1506,
      "ole": 1507,
      "Ġreport": 1508,
      "Ġposs": 1509,
      "urther": 1510,
      "Ġread": 1511,
      "Ġstand": 1512,
      "Ġopen": 1513,
      "Ġsong": 1514,
      "ged": 1515,
      "ody": 1516,
      "ior": 1517,
      "Ġexpl": 1518,
      "Ġstr": 1519,
      "alth": 1520,
      "amb": 1521,
      "ĠĠĠĠ": 1522,
      "Ġrefer": 1523,
      "Ġdue": 1524,
      "ilar": 1525,
      "attle": 1526,
      "Ġplayer": 1527,
      "Ġ13": 1528,
      "Ġtechn": 1529,
      "itional": 1530,
      "ĠMan": 1531,
      "ĠPar": 1532,
      "Ġav": 1533,
      "estern": 1534,
      "ode": 1535,
      "epend": 1536,
      "Ġstill": 1537,
      "ĠAll": 1538,
      "Ġwithin": 1539,
      "Ġword": 1540,
      "Ġplace": 1541,
      "Ex": 1542,
      "ĠAnd": 1543,
      "cer": 1544,
      "ĠGree": 1545,
      "13": 1546,
      "ĠAugust": 1547,
      "Ġmembers": 1548,
      "ĠAir": 1549,
      "Ġalong": 1550,
      "sc": 1551,
      "Ġinflu": 1552,
      "ories": 1553,
      "24": 1554,
      "ĠGe": 1555,
      "ially": 1556,
      "af": 1557,
      "ĠAlex": 1558,
      "Ġdem": 1559,
      "Ġlanguage": 1560,
      "get": 1561,
      "ĊĊ": 1562,
      "Ġcrit": 1563,
      "ological": 1564,
      "Ġhead": 1565,
      "References": 1566,
      "reen": 1567,
      "ends": 1568,
      "ander": 1569,
      "Ġusing": 1570,
      "Ġexper": 1571,
      "ple": 1572,
      "Ġthird": 1573,
      "ĠMon": 1574,
      "inks": 1575,
      "Ġmodern": 1576,
      "Ġstat": 1577,
      "Ġcomb": 1578,
      "Ġcharacter": 1579,
      "Ġ$<<": 1580,
      "omin": 1581,
      "oks": 1582,
      "Ġless": 1583,
      "Ġnational": 1584,
      "Ġformer": 1585,
      "Ġhistory": 1586,
      "Ġtem": 1587,
      "ane": 1588,
      "uary": 1589,
      "Ġfamily": 1590,
      "Ġmonth": 1591,
      "isc": 1592,
      "Ġ193": 1593,
      "Ġfive": 1594,
      "idd": 1595,
      "bo": 1596,
      "Ġtook": 1597,
      "ele": 1598,
      "yd": 1599,
      "Ġhig": 1600,
      "ĠRuss": 1601,
      "dust": 1602,
      "ger": 1603,
      "22": 1604,
      "ality": 1605,
      "ĠAfter": 1606,
      "app": 1607,
      "ĠPort": 1608,
      "Ġhel": 1609,
      "Ġrev": 1610,
      "Ġvery": 1611,
      "Ġresp": 1612,
      "Ġline": 1613,
      "Ġadv": 1614,
      "ham": 1615,
      "ored": 1616,
      "Ġpresent": 1617,
      "iness": 1618,
      "ms": 1619,
      "ner": 1620,
      "ana": 1621,
      "Ġopp": 1622,
      "Ġled": 1623,
      "Ġrad": 1624,
      "Ġprof": 1625,
      "ĠThese": 1626,
      "Ġsaid": 1627,
      "stit": 1628,
      "Ġtyp": 1629,
      "Ġwon": 1630,
      "ĠSer": 1631,
      "uted": 1632,
      "aster": 1633,
      "ĠPol": 1634,
      "Ġsold": 1635,
      "uddh": 1636,
      "ublic": 1637,
      "Ġsingle": 1638,
      "Ġpopular": 1639,
      "Ġanother": 1640,
      "ilt": 1641,
      "ĠEng": 1642,
      "Ġhand": 1643,
      "Ġhalf": 1644,
      "ĠNov": 1645,
      "Ġfact": 1646,
      "ĠAss": 1647,
      "Ġprop": 1648,
      "Ġtele": 1649,
      "Ġgeneral": 1650,
      "Ġtw": 1651,
      "Ġhistor": 1652,
      "Ġdays": 1653,
      "ument": 1654,
      "Ġreleased": 1655,
      "ones": 1656,
      "ĠRoman": 1657,
      "Ġbook": 1658,
      "ourt": 1659,
      "Ġbelie": 1660,
      "100": 1661,
      "omb": 1662,
      "me": 1663,
      "Ġvis": 1664,
      "ĠHis": 1665,
      "Ġhuman": 1666,
      "Ġdown": 1667,
      "Ġgl": 1668,
      "Ġconsidered": 1669,
      "ĠBro": 1670,
      "tic": 1671,
      "ches": 1672,
      "Ġfootball": 1673,
      "pril": 1674,
      "ata": 1675,
      "Ġshort": 1676,
      "ĠWill": 1677,
      "ense": 1678,
      "cing": 1679,
      "ĠRep": 1680,
      "Ġaff": 1681,
      "Ġla": 1682,
      "ĠJu": 1683,
      "Ġes": 1684,
      "Ġconc": 1685,
      "line": 1686,
      "ges": 1687,
      "eter": 1688,
      "ison": 1689,
      "ĠMin": 1690,
      "de": 1691,
      "Ġhours": 1692,
      "Ġevent": 1693,
      "Ġcomput": 1694,
      "adem": 1695,
      "Ġ*": 1696,
      "Ġlo": 1697,
      "ids": 1698,
      "Ġpract": 1699,
      "Ġrepresent": 1700,
      "ĠOct": 1701,
      "Ġter": 1702,
      "Ã¡": 1703,
      "urs": 1704,
      "cil": 1705,
      "Ġfind": 1706,
      "ĠSept": 1707,
      "Ġweek": 1708,
      "Ġgames": 1709,
      "Th": 1710,
      "Ġrepl": 1711,
      "Ġlinks": 1712,
      "11": 1713,
      "ĠBuddh": 1714,
      "Ġbi": 1715,
      "Ġpublished": 1716,
      "ĠBy": 1717,
      "Ġprev": 1718,
      "Ġtake": 1719,
      "Ġx": 1720,
      "Ġbecome": 1721,
      "vision": 1722,
      "empt": 1723,
      "Ġheld": 1724,
      "Ġbre": 1725,
      "Ġmult": 1726,
      "Ġsix": 1727,
      "iber": 1728,
      "Ġfore": 1729,
      "Ġpat": 1730,
      "ĠCal": 1731,
      "Ġestablished": 1732,
      "lin": 1733,
      "Ġnamed": 1734,
      "Ġparticular": 1735,
      "Al": 1736,
      "Ġsk": 1737,
      "Ġorigin": 1738,
      "oon": 1739,
      "Ġfre": 1740,
      "Ġlargest": 1741,
      "ĠJanuary": 1742,
      "Ġinf": 1743,
      "ĠApril": 1744,
      "ilos": 1745,
      "ung": 1746,
      "Ġsimilar": 1747,
      "Ġ100": 1748,
      "Ġtop": 1749,
      "rict": 1750,
      "Ġport": 1751,
      "Ġdevelopment": 1752,
      "ances": 1753,
      "Ġarch": 1754,
      "ots": 1755,
      "ĠEuropean": 1756,
      "Ġimportant": 1757,
      "Ġclaim": 1758,
      "ests": 1759,
      "Ġfield": 1760,
      "ourn": 1761,
      "mber": 1762,
      "ĠEd": 1763,
      "inese": 1764,
      "Ġcolle": 1765,
      "irth": 1766,
      "serv": 1767,
      "Ġlevel": 1768,
      "Ġvarious": 1769,
      "Ġfew": 1770,
      "Ġprom": 1771,
      "Ġlocal": 1772,
      "Ġcr": 1773,
      "ĠSeptember": 1774,
      "alk": 1775,
      "rote": 1776,
      "apan": 1777,
      "ead": 1778,
      "sh": 1779,
      "Ġspecies": 1780,
      "Ġcamp": 1781,
      "ography": 1782,
      "ĠX": 1783,
      "Ġgreat": 1784,
      "ering": 1785,
      "ĠCount": 1786,
      "ccording": 1787,
      "ĠSw": 1788,
      "Ġtit": 1789,
      "Ġgiven": 1790,
      "ĠGu": 1791,
      "Ġlate": 1792,
      "ote": 1793,
      "Ġbeg": 1794,
      "Ġ11": 1795,
      "acks": 1796,
      "ploy": 1797,
      "ese": 1798,
      "pecial": 1799,
      "olution": 1800,
      "ĠMarch": 1801,
      "Ġplayed": 1802,
      "Ġprote": 1803,
      "ured": 1804,
      "ym": 1805,
      "eth": 1806,
      "Ġmanag": 1807,
      "Ġmilitary": 1808,
      "augh": 1809,
      "craft": 1810,
      "Ġfinal": 1811,
      "Ġanim": 1812,
      "ruction": 1813,
      "Ġprim": 1814,
      "astern": 1815,
      "Ġcomple": 1816,
      "ban": 1817,
      "side": 1818,
      "Ġminutes": 1819,
      "Ġsec": 1820,
      "Ġview": 1821,
      "Ġincluded": 1822,
      "Ġmag": 1823,
      "Ġkill": 1824,
      "Ġcontrol": 1825,
      "Ġeduc": 1826,
      "ination": 1827,
      "Ġband": 1828,
      "Ġjust": 1829,
      "inning": 1830,
      "li": 1831,
      "ertain": 1832,
      "ĠChar": 1833,
      "Ġmen": 1834,
      "olic": 1835,
      "Ġcare": 1836,
      "ĠBra": 1837,
      "ogn": 1838,
      "On": 1839,
      "rian": 1840,
      "ites": 1841,
      "Ġident": 1842,
      "ama": 1843,
      "Ġpolitical": 1844,
      "Ġactiv": 1845,
      "Ġdeveloped": 1846,
      "istic": 1847,
      "Ġstudents": 1848,
      "ivil": 1849,
      "Ġwithout": 1850,
      "Ġconf": 1851,
      "ither": 1852,
      "tt": 1853,
      "Ġjoin": 1854,
      "Ġintrodu": 1855,
      "Ġinvol": 1856,
      "Ġiss": 1857,
      "External": 1858,
      "Ġlim": 1859,
      "cember": 1860,
      "ivid": 1861,
      "=<<": 1862,
      "Ġphys": 1863,
      ".,": 1864,
      "ean": 1865,
      "istory": 1866,
      "aly": 1867,
      "yle": 1868,
      "Ġcompany": 1869,
      "Ġcountries": 1870,
      "ĠBC": 1871,
      "Ġinit": 1872,
      "Ġindust": 1873,
      "Ġ&": 1874,
      "Ġgrow": 1875,
      "Ġstruct": 1876,
      "ĠJune": 1877,
      "int": 1878,
      "lic": 1879,
      "Ġpoint": 1880,
      "Ġcaus": 1881,
      "197": 1882,
      "Ġbeh": 1883,
      "Ġ2008": 1884,
      "ĠHar": 1885,
      "aul": 1886,
      "Ġchang": 1887,
      "Ġ25": 1888,
      "ille": 1889,
      "less": 1890,
      "ster": 1891,
      "ĠOctober": 1892,
      "lymp": 1893,
      "Ġreceived": 1894,
      "23": 1895,
      "atter": 1896,
      "Ġregion": 1897,
      "ule": 1898,
      "ably": 1899,
      "ops": 1900,
      "ps": 1901,
      "ĠChinese": 1902,
      "ention": 1903,
      "Ġcond": 1904,
      "Ġrelig": 1905,
      "Ġassoci": 1906,
      "ĠOne": 1907,
      "rican": 1908,
      "Ġel": 1909,
      "ĠHer": 1910,
      "ĠDav": 1911,
      "Ġoriginal": 1912,
      "ĠNovember": 1913,
      "Ġproduction": 1914,
      "hern": 1915,
      "Ġdel": 1916,
      "Ġtri": 1917,
      "Ġtown": 1918,
      "198": 1919,
      "Ġsour": 1920,
      "ffic": 1921,
      "ificant": 1922,
      "Ġ24": 1923,
      "for": 1924,
      "Ġexist": 1925,
      "ĠBey": 1926,
      "ĠGeor": 1927,
      "ĠAp": 1928,
      "Ġcal": 1929,
      "lear": 1930,
      "ĠEx": 1931,
      "Ġ2006": 1932,
      "Ġway": 1933,
      "Ch": 1934,
      "Ġhowever": 1935,
      "ĠBr": 1936,
      "ential": 1937,
      "most": 1938,
      "Ġnorth": 1939,
      "Ġproper": 1940,
      "ĠDecember": 1941,
      "Ġbase": 1942,
      "ĠJapan": 1943,
      "ware": 1944,
      "Ġep": 1945,
      "Ġide": 1946,
      "urg": 1947,
      "Ġ2007": 1948,
      "ĠWhen": 1949,
      "bs": 1950,
      "Ġdecl": 1951,
      "ĠJuly": 1952,
      "Ġareas": 1953,
      "Ġmean": 1954,
      "Ġworks": 1955,
      "Ġlow": 1956,
      "aren": 1957,
      "ports": 1958,
      "ĠComp": 1959,
      "Äģ": 1960,
      "Ġhaving": 1961,
      "Ġ2010": 1962,
      "Ġrul": 1963,
      "arn": 1964,
      "ician": 1965,
      "ĠSch": 1966,
      "sequ": 1967,
      "aut": 1968,
      "ĠChurch": 1969,
      "Ġpain": 1970,
      "Ġcompet": 1971,
      "Ġage": 1972,
      "ested": 1973,
      "Ġwrote": 1974,
      "orthern": 1975,
      "Ġrelations": 1976,
      "Ġgroups": 1977,
      "Ġproduct": 1978,
      "umb": 1979,
      "lor": 1980,
      "Ġ40": 1981,
      "Ġsomet": 1982,
      "Ġrese": 1983,
      "Ġ50": 1984,
      "ipp": 1985,
      "Ġaver": 1986,
      "Ġsignificant": 1987,
      "Ã¼": 1988,
      "Ġproduced": 1989,
      "Ġattempt": 1990,
      "Ġindepend": 1991,
      "century": 1992,
      "Ġreal": 1993,
      "ched": 1994,
      "formation": 1995,
      "Ġalthough": 1996,
      "iron": 1997,
      "Ġlist": 1998,
      "ĠBer": 1999,
      "ype": 2000,
      "ondon": 2001,
      "Ġappear": 2002,
      "Ġstates": 2003,
      "aces": 2004,
      "ining": 2005,
      "Ġproble": 2006,
      "ĠEar": 2007,
      "ĠEngland": 2008,
      "Ġdog": 2009,
      "bert": 2010,
      "aken": 2011,
      "ĠSte": 2012,
      "Ġbuilt": 2013,
      "Amer": 2014,
      "Ġcurrent": 2015,
      "zer": 2016,
      "osp": 2017,
      "Ġredu": 2018,
      "itive": 2019,
      "ĠInternational": 2020,
      "Ġstudy": 2021,
      "ĠChina": 2022,
      "rated": 2023,
      "Ġdeb": 2024,
      "aterial": 2025,
      "Ġusually": 2026,
      "Ġ2013": 2027,
      "cul": 2028,
      "ĠChristian": 2029,
      "ridge": 2030,
      "ĠBel": 2031,
      "mon": 2032,
      "sp": 2033,
      "Ġtreat": 2034,
      "ental": 2035,
      "Ġofficial": 2036,
      "ĠCo": 2037,
      "Ġsw": 2038,
      "Ġamount": 2039,
      "Ġfri": 2040,
      "ouncil": 2041,
      "Ġturn": 2042,
      "Ġsystems": 2043,
      "atural": 2044,
      "idence": 2045,
      "Ġrole": 2046,
      "ĠGreek": 2047,
      "Ġclub": 2048,
      "ĠWilliam": 2049,
      "BC": 2050,
      "Ġer": 2051,
      "Ġwomen": 2052,
      "Ġbody": 2053,
      "Ġarg": 2054,
      "Ġprevious": 2055,
      "work": 2056,
      "iation": 2057,
      "Ġplayers": 2058,
      "ounds": 2059,
      "Ġchildren": 2060,
      "ability": 2061,
      "Ġshould": 2062,
      "ara": 2063,
      "Ġpost": 2064,
      "Ġ/": 2065,
      "ald": 2066,
      "hod": 2067,
      "Ġsepar": 2068,
      "rick": 2069,
      "ĠAg": 2070,
      "Ġcame": 2071,
      "ows": 2072,
      "Ġindivid": 2073,
      "ĠMed": 2074,
      "Ġengine": 2075,
      "anish": 2076,
      "Ġhelp": 2077,
      "Ġ190": 2078,
      "Ġ2009": 2079,
      "eh": 2080,
      "ope": 2081,
      "born": 2082,
      "mit": 2083,
      "ebru": 2084,
      "ergy": 2085,
      "Ġsouth": 2086,
      "oms": 2087,
      "ĠLondon": 2088,
      "ĠBeyon": 2089,
      "Ġannoun": 2090,
      "ebruary": 2091,
      "Ġwritten": 2092,
      "Ġbirth": 2093,
      "ĠGen": 2094,
      "ĠOlymp": 2095,
      "American": 2096,
      "ĠAmerica": 2097,
      "abor": 2098,
      "ĠPart": 2099,
      "ĠSome": 2100,
      "ending": 2101,
      "bit": 2102,
      "ĠPres": 2103,
      "ape": 2104,
      "atures": 2105,
      "Ġsocial": 2106,
      "acy": 2107,
      "ling": 2108,
      "There": 2109,
      "Ġvol": 2110,
      "aur": 2111,
      "self": 2112,
      "Ġdev": 2113,
      "Ġmass": 2114,
      "Ġcase": 2115,
      "cient": 2116,
      "hers": 2117,
      "ĠNe": 2118,
      "men": 2119,
      "Ġthough": 2120,
      "ĠTe": 2121,
      "alt": 2122,
      "Ġsugg": 2123,
      "thern": 2124,
      "ways": 2125,
      "ĠPortug": 2126,
      "rab": 2127,
      "Ġservice": 2128,
      "writ": 2129,
      "Ġcover": 2130,
      "ĠSchool": 2131,
      "Ġsent": 2132,
      "Ġmaterial": 2133,
      "ĠLeague": 2134,
      "Ġspecial": 2135,
      "Ġsum": 2136,
      "rap": 2137,
      "Ġside": 2138,
      "Ġ2011": 2139,
      "Ġbusiness": 2140,
      "ĠAc": 2141,
      "Ġcompos": 2142,
      "ĠFebruary": 2143,
      "Ġ2014": 2144,
      "Ġfunction": 2145,
      "Ġi": 2146,
      "ĠGod": 2147,
      "Ġren": 2148,
      "Ġ0": 2149,
      "Ġblack": 2150,
      "Ġnext": 2151,
      "outhern": 2152,
      "Ġhouse": 2153,
      "Ġson": 2154,
      "irc": 2155,
      "raw": 2156,
      "ctor": 2157,
      "ĠUnion": 2158,
      "Ġothers": 2159,
      "ators": 2160,
      "Ġphilos": 2161,
      "Ġfurther": 2162,
      "ency": 2163,
      "Ġwin": 2164,
      "ief": 2165,
      "Ġsym": 2166,
      "used": 2167,
      "atin": 2168,
      "ĠEm": 2169,
      "Ġinternational": 2170,
      "ideo": 2171,
      "ray": 2172,
      "wh": 2173,
      "ĠApp": 2174,
      "ising": 2175,
      "Ġdescribed": 2176,
      "Ġ2012": 2177,
      "of": 2178,
      "minist": 2179,
      "ler": 2180,
      "ming": 2181,
      "Ġright": 2182,
      "27": 2183,
      "utions": 2184,
      "iddle": 2185,
      "Ġaverage": 2186,
      "Ġdest": 2187,
      "Ġmy": 2188,
      "ĠAng": 2189,
      "cÃ©": 2190,
      "ĠAfrican": 2191,
      "urk": 2192,
      "imate": 2193,
      "Ġmust": 2194,
      "Ġmeans": 2195,
      "rag": 2196,
      "See": 2197,
      "Ġversion": 2198,
      "Ġcell": 2199,
      "Ġcreated": 2200,
      "Ġspace": 2201,
      "Ġstrong": 2202,
      "bon": 2203,
      "rain": 2204,
      "ude": 2205,
      "Ġbroad": 2206,
      "arian": 2207,
      "Ġking": 2208,
      "Ġtheory": 2209,
      "rest": 2210,
      "ĠSoc": 2211,
      "etic": 2212,
      "Ġwid": 2213,
      "Ġmethod": 2214,
      "Ġobject": 2215,
      "Ġnov": 2216,
      "Ġbooks": 2217,
      "uel": 2218,
      "aper": 2219,
      "ford": 2220,
      "ĠÃ": 2221,
      "ĠCro": 2222,
      "iction": 2223,
      "Ġsurv": 2224,
      "ĠJew": 2225,
      "Ġlight": 2226,
      "oung": 2227,
      "iqu": 2228,
      "ification": 2229,
      "eum": 2230,
      "Ġder": 2231,
      "eration": 2232,
      "ĠEast": 2233,
      "Ġball": 2234,
      "reg": 2235,
      "ĠEmp": 2236,
      "90": 2237,
      "ino": 2238,
      "Ġbest": 2239,
      "ĠBeyoncÃ©": 2240,
      "Ġhost": 2241,
      "Ġ2005": 2242,
      "ka": 2243,
      "ĠPark": 2244,
      "ĠFrance": 2245,
      "Ġ60": 2246,
      "Ġeither": 2247,
      "Ġtelevision": 2248,
      "Ġprot": 2249,
      "Ġ2015": 2250,
      "Ġlanguages": 2251,
      "Ġcapital": 2252,
      "Ġaddition": 2253,
      "avy": 2254,
      "head": 2255,
      "cast": 2256,
      "ari": 2257,
      "Ġmember": 2258,
      "ĠEl": 2259,
      "ĠColle": 2260,
      "Ġhold": 2261,
      "ĠState": 2262,
      "ampions": 2263,
      "ached": 2264,
      "unic": 2265,
      "Ġpri": 2266,
      "aves": 2267,
      "ĠCanada": 2268,
      "ĠBlack": 2269,
      "Ġproject": 2270,
      "ĠAustralian": 2271,
      "omp": 2272,
      "Ġposition": 2273,
      "St": 2274,
      "Ġoccur": 2275,
      "ĠDavid": 2276,
      "Ġ2000": 2277,
      "Ġfail": 2278,
      "28": 2279,
      "asing": 2280,
      "Ġnet": 2281,
      "Ġmaking": 2282,
      "Ġaccount": 2283,
      "bers": 2284,
      "ÃŃ": 2285,
      "enced": 2286,
      "otes": 2287,
      "Ġattack": 2288,
      "Ġconstit": 2289,
      "Ġgr": 2290,
      "ips": 2291,
      "Ġterrit": 2292,
      "co": 2293,
      "Ġdied": 2294,
      "Ġcontinued": 2295,
      "val": 2296,
      "II": 2297,
      "Ġfather": 2298,
      "incip": 2299,
      "na": 2300,
      "Ġsyn": 2301,
      "imately": 2302,
      "Ġmot": 2303,
      "ning": 2304,
      "Ġlocated": 2305,
      "face": 2306,
      "196": 2307,
      "ĠDuring": 2308,
      "off": 2309,
      "istan": 2310,
      "Ġresearch": 2311,
      "ĠCor": 2312,
      "ront": 2313,
      "ky": 2314,
      "Ġkey": 2315,
      "ify": 2316,
      "Ġprofess": 2317,
      "He": 2318,
      "ĠKingdom": 2319,
      "Ġleast": 2320,
      "pecially": 2321,
      "nect": 2322,
      "iol": 2323,
      "ĠFirst": 2324,
      "Ġmarket": 2325,
      "Ġmoney": 2326,
      "Ã¶": 2327,
      "Ġrange": 2328,
      "Ġpresident": 2329,
      "Ġgave": 2330,
      "elling": 2331,
      "Ġbuilding": 2332,
      "36": 2333,
      "Ġfood": 2334,
      "Ġgood": 2335,
      "Ġenc": 2336,
      "Ġgenerally": 2337,
      "Ġavail": 2338,
      "Ġpot": 2339,
      "ĠPe": 2340,
      "now": 2341,
      "Ġanal": 2342,
      "Ġrecogn": 2343,
      "ĠAccording": 2344,
      "ef": 2345,
      "ush": 2346,
      "ĠMc": 2347,
      "ĠAustralia": 2348,
      "play": 2349,
      "Ġtype": 2350,
      "order": 2351,
      "ĠIndian": 2352,
      "Ġred": 2353,
      "Ġsqu": 2354,
      "rica": 2355,
      "Ġexpress": 2356,
      "Ġmultip": 2357,
      "Ġcop": 2358,
      "ĠAct": 2359,
      "Ġfem": 2360,
      "Ġinvest": 2361,
      "ĠEmpire": 2362,
      "Ġfilms": 2363,
      "Ġcoll": 2364,
      "ĠSan": 2365,
      "Ġlaun": 2366,
      "Ġpriv": 2367,
      "gether": 2368,
      "Ġpay": 2369,
      "Ġtogether": 2370,
      "ements": 2371,
      "ensive": 2372,
      "Ġforces": 2373,
      "ĠPhil": 2374,
      "Ġoffer": 2375,
      "Ġdiscover": 2376,
      "Ġ[": 2377,
      "ĠCath": 2378,
      "Ġreported": 2379,
      "Ġstyle": 2380,
      "ma": 2381,
      "Ġmer": 2382,
      "ĠRes": 2383,
      "uk": 2384,
      "hel": 2385,
      "Ġchem": 2386,
      "Ġnever": 2387,
      "Ġrate": 2388,
      "Ġmeas": 2389,
      "ples": 2390,
      "ĠFl": 2391,
      "fic": 2392,
      "Ġget": 2393,
      "aining": 2394,
      "Ġeconomic": 2395,
      "Ġcapt": 2396,
      "aff": 2397,
      "Ġfull": 2398,
      "ills": 2399,
      "Ġ21": 2400,
      "ĠOther": 2401,
      "Ġsch": 2402,
      "Ġannounced": 2403,
      "ĠGreat": 2404,
      "ĠRepublic": 2405,
      "Ġfac": 2406,
      "Ġinstit": 2407,
      "aries": 2408,
      "Ġthroughout": 2409,
      "ĠWe": 2410,
      "Ġfund": 2411,
      "Ġparts": 2412,
      "Ġtemper": 2413,
      "Ġke": 2414,
      "ique": 2415,
      "ĠDay": 2416,
      "ĠPresident": 2417,
      "ĠArmy": 2418,
      "Ġpolitician": 2419,
      "Ġ1990": 2420,
      "reet": 2421,
      "oviet": 2422,
      "ĠRiver": 2423,
      "ĠHol": 2424,
      "ĠDiv": 2425,
      "Ġcy": 2426,
      "oyal": 2427,
      "Ġast": 2428,
      "pite": 2429,
      "Ġnumbers": 2430,
      "ream": 2431,
      "Ġz": 2432,
      "Ġaircraft": 2433,
      "Ġenergy": 2434,
      "Ġpossible": 2435,
      "bor": 2436,
      "Ġtro": 2437,
      "ĠJames": 2438,
      "Ġpercent": 2439,
      "ĠGermany": 2440,
      "Ġche": 2441,
      "ateg": 2442,
      "oid": 2443,
      "icro": 2444,
      "Ġge": 2445,
      "Ġmodel": 2446,
      "Ġsometimes": 2447,
      "arily": 2448,
      "Ġhimself": 2449,
      "Ġten": 2450,
      "ĠWestern": 2451,
      "ĠTr": 2452,
      "ades": 2453,
      "ancial": 2454,
      "stand": 2455,
      "ĠPaul": 2456,
      "uf": 2457,
      "Ġfree": 2458,
      "ĠNo": 2459,
      "eg": 2460,
      "Ġformed": 2461,
      "Ġnatural": 2462,
      "ĠHouse": 2463,
      "Ġ2004": 2464,
      "ĠPer": 2465,
      "Ġparty": 2466,
      "Ġwent": 2467,
      "ption": 2468,
      "ournal": 2469,
      "Ġrather": 2470,
      "lant": 2471,
      "Ġdata": 2472,
      "Ġeth": 2473,
      "ĠAward": 2474,
      "Ġlower": 2475,
      "Ġunivers": 2476,
      "Ġaccept": 2477,
      "itect": 2478,
      "ĠWith": 2479,
      "chan": 2480,
      "Ġimpro": 2481,
      "ael": 2482,
      "upp": 2483,
      "ibr": 2484,
      "ria": 2485,
      "Ġabs": 2486,
      "lement": 2487,
      "Ġpoints": 2488,
      "lected": 2489,
      "Ġwhe": 2490,
      "iles": 2491,
      "ĠPal": 2492,
      "Ġcomplex": 2493,
      "Ġtransl": 2494,
      "ĠReg": 2495,
      "Ġterms": 2496,
      "Ġfeature": 2497,
      "ĠAfrica": 2498,
      "ĠAlexander": 2499,
      "ĠGl": 2500,
      "Ġfig": 2501,
      "vert": 2502,
      "right": 2503,
      "Ġcertain": 2504,
      "Ġexec": 2505,
      "ĠWhite": 2506,
      "ened": 2507,
      "Ġindic": 2508,
      "ving": 2509,
      "Ġhigher": 2510,
      "45": 2511,
      "Ġespecially": 2512,
      "Ġpur": 2513,
      "35": 2514,
      "opin": 2515,
      "70": 2516,
      "cle": 2517,
      "Ġrespect": 2518,
      "Ġentire": 2519,
      "Ġcentral": 2520,
      "Ġemploy": 2521,
      "ishing": 2522,
      "Ġ(\"": 2523,
      "Ġisland": 2524,
      "75": 2525,
      "rees": 2526,
      "Ġdefe": 2527,
      "Ġcomputer": 2528,
      "year": 2529,
      "Ġavailable": 2530,
      "ett": 2531,
      "eds": 2532,
      "ads": 2533,
      "Ġstation": 2534,
      "ĠKh": 2535,
      "icle": 2536,
      "chie": 2537,
      "Ġlost": 2538,
      "icy": 2539,
      "throp": 2540,
      "Ġuses": 2541,
      "Ġliter": 2542,
      "hib": 2543,
      "Ġmother": 2544,
      "Ġmiss": 2545,
      "erous": 2546,
      "ĠCounty": 2547,
      ".)": 2548,
      "mercial": 2549,
      "viron": 2550,
      "ingu": 2551,
      "Ġ189": 2552,
      "Ġpie": 2553,
      "Ġjud": 2554,
      "ĠAnt": 2555,
      "Ġpress": 2556,
      "ĠMich": 2557,
      "Ġmid": 2558,
      "ula": 2559,
      "Ġchange": 2560,
      "iforn": 2561,
      "Ġacross": 2562,
      "ĠDes": 2563,
      "uth": 2564,
      "Ġseen": 2565,
      "Ġmonths": 2566,
      "Ġcivil": 2567,
      "Ġtour": 2568,
      "Ġstar": 2569,
      "Ġdeg": 2570,
      "Ġtaken": 2571,
      "ĠChopin": 2572,
      "uation": 2573,
      "Ġabove": 2574,
      "Ġvari": 2575,
      "ĠGeorge": 2576,
      "Ġbecom": 2577,
      "Ġpen": 2578,
      "Ġplan": 2579,
      "Ġsuccessful": 2580,
      "Ġstarted": 2581,
      "Ġbar": 2582,
      "ump": 2583,
      "ĠIndia": 2584,
      "Ġeducation": 2585,
      "ĠSoviet": 2586,
      "ume": 2587,
      "Ġtext": 2588,
      "Ġtest": 2589,
      "Ġdou": 2590,
      "Ġincreased": 2591,
      "Ġsubject": 2592,
      "Ġfollowed": 2593,
      "ĠCentral": 2594,
      "As": 2595,
      "Ġforms": 2596,
      "Ġadminist": 2597,
      "Ġcommunity": 2598,
      "duct": 2599,
      "Ġscient": 2600,
      "Ġpred": 2601,
      "Ġconsist": 2602,
      "Ġschools": 2603,
      "Ġcirc": 2604,
      "Ġfrequ": 2605,
      "Ġregard": 2606,
      "Ġculture": 2607,
      "Un": 2608,
      "cript": 2609,
      "Ġfar": 2610,
      "ĠArt": 2611,
      "AS": 2612,
      "ydro": 2613,
      "Ġable": 2614,
      "ĠBas": 2615,
      "Ġintroduced": 2616,
      "Ar": 2617,
      "Ġelements": 2618,
      "anc": 2619,
      "Ġcontrib": 2620,
      "ength": 2621,
      "Ġput": 2622,
      "Ġcat": 2623,
      "rel": 2624,
      "oted": 2625,
      "iers": 2626,
      "ĠLatin": 2627,
      "ĠCollege": 2628,
      "ĠSy": 2629,
      "Ġ1980": 2630,
      "Ġaud": 2631,
      "Ġfounded": 2632,
      "Ġsee": 2633,
      "ĠRober": 2634,
      "Ġground": 2635,
      "Ġtitle": 2636,
      "Ġborn": 2637,
      "anted": 2638,
      "artment": 2639,
      "atory": 2640,
      "26": 2641,
      "ĠRec": 2642,
      "ĠTo": 2643,
      "Ġarr": 2644,
      "airs": 2645,
      "Ġcompan": 2646,
      "Ġschol": 2647,
      "aign": 2648,
      "Ġlik": 2649,
      "Ã³": 2650,
      "Ġcareer": 2651,
      "Ġbox": 2652,
      "ĠArab": 2653,
      "Ġsuper": 2654,
      "Ġinstead": 2655,
      "Ġstandard": 2656,
      "Ġcourt": 2657,
      "Ġaway": 2658,
      "Ġhard": 2659,
      "Ġprincip": 2660,
      "ĠCong": 2661,
      "Ġsinger": 2662,
      "ores": 2663,
      "teg": 2664,
      "Ġvideo": 2665,
      "ĠMart": 2666,
      "Ġmoved": 2667,
      "Ġfall": 2668,
      "ĠCup": 2669,
      "So": 2670,
      "Ġsuff": 2671,
      "Ġcritic": 2672,
      "Ġmeaning": 2673,
      "wood": 2674,
      "Ġconcept": 2675,
      "Ġfire": 2676,
      "Ġestim": 2677,
      "ĠSup": 2678,
      "Ġserved": 2679,
      "Ġalmost": 2680,
      "ĠParty": 2681,
      "ĠLa": 2682,
      "ĠRussian": 2683,
      "Ġinformation": 2684,
      "ĠMor": 2685,
      "Ġincludes": 2686,
      "Ġevents": 2687,
      "Ġaccording": 2688,
      "be": 2689,
      "Ġ|": 2690,
      "Ġstory": 2691,
      "Ġ2016": 2692,
      "ĠSpanish": 2693,
      "sy": 2694,
      "Ġagre": 2695,
      "Ġvict": 2696,
      "Ġ2001": 2697,
      "Ġaccess": 2698,
      "Ġdi": 2699,
      "lam": 2700,
      "Ġden": 2701,
      "Ġsit": 2702,
      "Ġnovel": 2703,
      "ocr": 2704,
      "aps": 2705,
      "âĢĻ": 2706,
      "Ġforce": 2707,
      "rought": 2708,
      "Ġbrother": 2709,
      "ĠCouncil": 2710,
      "ems": 2711,
      "48": 2712,
      "Ġfoc": 2713,
      "Ġearn": 2714,
      "ifornia": 2715,
      "ĠSm": 2716,
      "like": 2717,
      "Ġgrad": 2718,
      "action": 2719,
      "berg": 2720,
      "ij": 2721,
      "195": 2722,
      "Ġupon": 2723,
      "ĠCanadian": 2724,
      "aint": 2725,
      "Ġcoast": 2726,
      "Ġreturned": 2727,
      "inary": 2728,
      "Ġmount": 2729,
      "Ġsite": 2730,
      "ĠHigh": 2731,
      "ington": 2732,
      "rem": 2733,
      "ĠCatholic": 2734,
      "ĠPri": 2735,
      "Ġdisp": 2736,
      "Ġtravel": 2737,
      "ĠRich": 2738,
      "Ġthought": 2739,
      "ston": 2740,
      "gar": 2741,
      "pir": 2742,
      "Ġox": 2743,
      "Ġbattle": 2744,
      "ĠInstit": 2745,
      "Ġevidence": 2746,
      "anks": 2747,
      "ederal": 2748,
      "ires": 2749,
      "Ġwords": 2750,
      "Ġ26": 2751,
      "\")": 2752,
      "roy": 2753,
      "Ġclos": 2754,
      "Ġill": 2755,
      "iting": 2756,
      "Ġconnect": 2757,
      "Ġfinancial": 2758,
      "rug": 2759,
      "Ġlive": 2760,
      "Ġimm": 2761,
      "Ġmedia": 2762,
      "ĠGovern": 2763,
      "hips": 2764,
      "Ġrock": 2765,
      "ĠTurk": 2766,
      "Ġwhose": 2767,
      "29": 2768,
      "Ġsoft": 2769,
      "istor": 2770,
      "Ġvalue": 2771,
      "Ġcities": 2772,
      "ĠItal": 2773,
      "Ġknow": 2774,
      "omm": 2775,
      "Ġthus": 2776,
      "Ġstri": 2777,
      "Ġsize": 2778,
      "Ġitself": 2779,
      "Ġ1970": 2780,
      "Ġcommercial": 2781,
      "bra": 2782,
      "view": 2783,
      "iot": 2784,
      "Ġmem": 2785,
      "medi": 2786,
      "Ġconcern": 2787,
      "ĠArch": 2788,
      "Ġtrib": 2789,
      "ĠSam": 2790,
      "'t": 2791,
      "Ġsaw": 2792,
      "Ġrights": 2793,
      "Ġassociated": 2794,
      "Ġancient": 2795,
      "aching": 2796,
      "Ġreligious": 2797,
      "vironment": 2798,
      "asons": 2799,
      "Ġapprox": 2800,
      "ĠCalifornia": 2801,
      "Ġ2003": 2802,
      "chest": 2803,
      "ixed": 2804,
      "zil": 2805,
      "ĠDivision": 2806,
      "ophy": 2807,
      "ysis": 2808,
      "Ġaward": 2809,
      "Ġtrade": 2810,
      "ords": 2811,
      "Ġhighest": 2812,
      "After": 2813,
      "Ġtwice": 2814,
      "uments": 2815,
      "ĠGro": 2816,
      "ĠCharles": 2817,
      "Ġrail": 2818,
      "Ġcross": 2819,
      "Ġtraditional": 2820,
      "ols": 2821,
      "ibet": 2822,
      "Ġneeds": 2823,
      "ĠWhile": 2824,
      "ĠMil": 2825,
      "Ġwhite": 2826,
      "Ġelection": 2827,
      "Ġachie": 2828,
      "liam": 2829,
      "ĠHen": 2830,
      "Ġadop": 2831,
      "Ġcommand": 2832,
      "ceed": 2833,
      "oul": 2834,
      "Ġris": 2835,
      "Ġservices": 2836,
      "utch": 2837,
      "Ġ2002": 2838,
      "sel": 2839,
      "Ġarm": 2840,
      "Ġindustry": 2841,
      "Ġ188": 2842,
      "Ġrelated": 2843,
      "Ġdoc": 2844,
      "Ġfav": 2845,
      "Ġmiles": 2846,
      "Ġhealth": 2847,
      "Ġ2017": 2848,
      "ste": 2849,
      "Ġdeterm": 2850,
      "atively": 2851,
      "Ġcand": 2852,
      "Ġ23": 2853,
      "Ġarmy": 2854,
      "Ġ80": 2855,
      "Ġhon": 2856,
      "Ġonce": 2857,
      "Ġdesigned": 2858,
      "Ġtakes": 2859,
      "ĠPress": 2860,
      "ĠDem": 2861,
      "ĠEarth": 2862,
      "ney": 2863,
      "itar": 2864,
      "Ġ2018": 2865,
      "ĠRo": 2866,
      "utive": 2867,
      "Ġactor": 2868,
      "Ġacadem": 2869,
      "uff": 2870,
      "itor": 2871,
      "Ġmaint": 2872,
      "eleb": 2873,
      "Ġste": 2874,
      "Ġtradition": 2875,
      "ĠGeneral": 2876,
      "ĠApple": 2877,
      "ĠQu": 2878,
      "isl": 2879,
      "istry": 2880,
      "peror": 2881,
      "clus": 2882,
      "ĠAtlant": 2883,
      "Ġelectron": 2884,
      "Ġmeet": 2885,
      "Ġstructure": 2886,
      "Ġpast": 2887,
      "ras": 2888,
      "ago": 2889,
      "Ġcampaign": 2890,
      "300": 2891,
      "liament": 2892,
      "Ġtax": 2893,
      "Ġgold": 2894,
      "gypt": 2895,
      "ulf": 2896,
      "amples": 2897,
      "Ġseven": 2898,
      "Ġmathem": 2899,
      "Ġquest": 2900,
      "istance": 2901,
      "inct": 2902,
      "Ġremained": 2903,
      "oice": 2904,
      "Ġround": 2905,
      "Ġscience": 2906,
      "Ġrecorded": 2907,
      "itch": 2908,
      "ounter": 2909,
      "rial": 2910,
      "Ġleading": 2911,
      "Ġrelease": 2912,
      "Ġmovement": 2913,
      "oint": 2914,
      "Ġestablish": 2915,
      "umn": 2916,
      "Ġmale": 2917,
      "Ġrespons": 2918,
      "lim": 2919,
      "not": 2920,
      "Ġ28": 2921,
      "Ġviol": 2922,
      "writer": 2923,
      "ollo": 2924,
      "Ġreferred": 2925,
      "Ġspent": 2926,
      "Ġfeatures": 2927,
      "Ġradio": 2928,
      "lo": 2929,
      "Ġneg": 2930,
      "Ġtransport": 2931,
      "Ġindividual": 2932,
      "Ġprovide": 2933,
      "Ġantib": 2934,
      "Ġparticip": 2935,
      "che": 2936,
      "Ġprob": 2937,
      "Ġhous": 2938,
      "ĠScott": 2939,
      "ĠParis": 2940,
      "Ġdomin": 2941,
      "obal": 2942,
      "Ġperformance": 2943,
      "Ġbrought": 2944,
      "Ġadded": 2945,
      "Ġyoung": 2946,
      "ilities": 2947,
      "Ġnorm": 2948,
      "ties": 2949,
      "Ġtor": 2950,
      "itation": 2951,
      "Ġclose": 2952,
      "Ġbank": 2953,
      "ficult": 2954,
      "ĠHall": 2955,
      "lier": 2956,
      "ĠBill": 2957,
      "ĠAssoci": 2958,
      "Ġsex": 2959,
      "ta": 2960,
      "iding": 2961,
      "owers": 2962,
      "Ġallowed": 2963,
      "Ġpers": 2964,
      "Ġcolon": 2965,
      "Ġinfluence": 2966,
      "put": 2967,
      "Ġremaining": 2968,
      "ki": 2969,
      "Ġexcept": 2970,
      "acters": 2971,
      "ĠQue": 2972,
      "32": 2973,
      "Ġlet": 2974,
      "ference": 2975,
      "ĠAlthough": 2976,
      "Ġreb": 2977,
      "Ġarchitect": 2978,
      "oe": 2979,
      "atives": 2980,
      "Ġkilled": 2981,
      "Ġur": 2982,
      "Ġeventually": 2983,
      "rast": 2984,
      "Ġcour": 2985,
      "Ġet": 2986,
      "Ġparticularly": 2987,
      "itude": 2988,
      "Ġcases": 2989,
      "ĠUK": 2990,
      "Ġprovided": 2991,
      "Ġdifficult": 2992,
      "Ġdom": 2993,
      "Ġinterest": 2994,
      "Ġ2020": 2995,
      "Ġappeared": 2996,
      "Ġ22": 2997,
      "Ġcompanies": 2998,
      "Ġdistrib": 2999,
      "ico": 3000,
      "ĠItalian": 3001,
      "ĠJapanese": 3002,
      "Ġphot": 3003,
      "Ġfight": 3004,
      "Ġapplic": 3005,
      "Ġeight": 3006,
      "ĠIr": 3007,
      "icles": 3008,
      "Ġliving": 3009,
      "ĠIsland": 3010,
      "rael": 3011,
      "ether": 3012,
      "oses": 3013,
      "unn": 3014,
      "odes": 3015,
      "uck": 3016,
      "och": 3017,
      "omas": 3018,
      "ayer": 3019,
      "Ġsubsequ": 3020,
      "Ġgrowth": 3021,
      "ĠLou": 3022,
      "field": 3023,
      "uan": 3024,
      "stant": 3025,
      "Ġeast": 3026,
      "istics": 3027,
      "Ġaltern": 3028,
      "based": 3029,
      "Ġconstruction": 3030,
      "Ġhydro": 3031,
      "urity": 3032,
      "osition": 3033,
      "uries": 3034,
      "ufact": 3035,
      "Ġsay": 3036,
      "Ġhom": 3037,
      "Ġoutside": 3038,
      "iter": 3039,
      "Ġmakes": 3040,
      "Ġeffort": 3041,
      "ĠMal": 3042,
      "Ġcred": 3043,
      "Ġinstr": 3044,
      "Ġperformed": 3045,
      "ĠEgypt": 3046,
      "Ġ186": 3047,
      "iment": 3048,
      "En": 3049,
      ");": 3050,
      "ili": 3051,
      "Ġemer": 3052,
      "Ġ1960": 3053,
      "ibility": 3054,
      "500": 3055,
      "History": 3056,
      "Ġnames": 3057,
      "ament": 3058,
      "Ġprivate": 3059,
      "Ġvill": 3060,
      "ulated": 3061,
      "Ġ1999": 3062,
      "Ġincrease": 3063,
      "Ġlength": 3064,
      "Ġcut": 3065,
      "ĠMost": 3066,
      "Ġproducer": 3067,
      "ls": 3068,
      "Ġdam": 3069,
      "Ġhour": 3070,
      "Ġ2019": 3071,
      "ĠĊĠĊĠĊĠĊ": 3072,
      "aged": 3073,
      "Ġrequired": 3074,
      "Ġdirector": 3075,
      "...": 3076,
      "Ġwest": 3077,
      "atch": 3078,
      "Ġ27": 3079,
      "Ġworking": 3080,
      "Ġcharacters": 3081,
      "rig": 3082,
      "ĠMy": 3083,
      "ĠBrazil": 3084,
      "ios": 3085,
      "Ġyou": 3086,
      "Ġdefin": 3087,
      "Ġmechan": 3088,
      "Ġforeign": 3089,
      "ership": 3090,
      "eks": 3091,
      "ift": 3092,
      "board": 3093,
      "Ġremains": 3094,
      "Ġmach": 3095,
      "mar": 3096,
      "Ġincreasing": 3097,
      "Ġrank": 3098,
      "Ġspecific": 3099,
      "ĠBook": 3100,
      "ĠRobert": 3101,
      "ha": 3102,
      "hens": 3103,
      "iff": 3104,
      "ĠAsia": 3105,
      "oz": 3106,
      "inter": 3107,
      "ĠMac": 3108,
      "Ġsal": 3109,
      "Ġinteg": 3110,
      "Ġgre": 3111,
      "Ġregular": 3112,
      "Ġsource": 3113,
      "ĠSea": 3114,
      "Ġstated": 3115,
      "Ġlarger": 3116,
      "Ġang": 3117,
      "Ġdyn": 3118,
      "ĠDep": 3119,
      "Ġcaused": 3120,
      "ux": 3121,
      "Ġloss": 3122,
      "Ġacid": 3123,
      "Ġsymb": 3124,
      "cies": 3125,
      "ĠNot": 3126,
      "Ġveh": 3127,
      "Ġresults": 3128,
      "ĠVal": 3129,
      "time": 3130,
      "ĠPat": 3131,
      "ulture": 3132,
      "ĠRoyal": 3133,
      "ĠAcadem": 3134,
      "go": 3135,
      "Ġsound": 3136,
      "For": 3137,
      "Ġfeet": 3138,
      "ĠCamb": 3139,
      "Ġhit": 3140,
      "ĠTibet": 3141,
      "Ġfourth": 3142,
      "elled": 3143,
      "ĠFrank": 3144,
      "uture": 3145,
      "ror": 3146,
      "anced": 3147,
      "Ġlog": 3148,
      "igned": 3149,
      "Ġord": 3150,
      "Ġ()": 3151,
      "ĠMont": 3152,
      "Ġnorthern": 3153,
      "ĠBattle": 3154,
      "Ġnetwork": 3155,
      "ont": 3156,
      "Ġmajority": 3157,
      "Ġtypes": 3158,
      "ĠMichael": 3159,
      "ection": 3160,
      "Ġver": 3161,
      "Ġweeks": 3162,
      "ĠRed": 3163,
      "anned": 3164,
      "ground": 3165,
      "ĠMe": 3166,
      "Ġlonger": 3167,
      "ranch": 3168,
      "Ġreplaced": 3169,
      "uese": 3170,
      "Ġpractice": 3171,
      "ibrary": 3172,
      "At": 3173,
      "ĠMinister": 3174,
      "Ġprimary": 3175,
      "Ġsem": 3176,
      "aches": 3177,
      "Ġcreat": 3178,
      "Ġsouthern": 3179,
      "Ġtoday": 3180,
      "ĠList": 3181,
      "Ġbuy": 3182,
      "asc": 3183,
      "lying": 3184,
      "ville": 3185,
      "aught": 3186,
      "Ġindependent": 3187,
      "Ġoccup": 3188,
      "Ġchurch": 3189,
      "ready": 3190,
      "ĠSim": 3191,
      "Ġneigh": 3192,
      "Ġacqu": 3193,
      "ĠBay": 3194,
      "Ġbehav": 3195,
      "kn": 3196,
      "iences": 3197,
      "Ġcause": 3198,
      "olit": 3199,
      "aker": 3200,
      "Ġlittle": 3201,
      "ĠMany": 3202,
      "ĠApollo": 3203,
      "Ġceleb": 3204,
      "ĠBen": 3205,
      "ĠPeter": 3206,
      "hab": 3207,
      "ables": 3208,
      "Ġwriting": 3209,
      "Ġlab": 3210,
      "Ġ2021": 3211,
      "Ġsongs": 3212,
      "ault": 3213,
      "str": 3214,
      "Ġrule": 3215,
      "Ġeffects": 3216,
      "Ġeconomy": 3217,
      "Ġepis": 3218,
      "Ġsil": 3219,
      "Ġsurface": 3220,
      "ĠMuseum": 3221,
      "Ġinterp": 3222,
      "Ġlack": 3223,
      "amer": 3224,
      "):": 3225,
      "ĠDutch": 3226,
      "Ġbeginning": 3227,
      "west": 3228,
      "agn": 3229,
      "aughter": 3230,
      "Ġwidely": 3231,
      "ĠNor": 3232,
      "Ġoriginally": 3233,
      "ĠSince": 3234,
      "Ġconcent": 3235,
      "ket": 3236,
      "Ġmagn": 3237,
      "Ġdise": 3238,
      "Ġess": 3239,
      "Ġmanufact": 3240,
      "ĠConf": 3241,
      "ĠBritain": 3242,
      "Ġmight": 3243,
      "Ġdig": 3244,
      "ĠSec": 3245,
      "Ġadditional": 3246,
      "Ġoffice": 3247,
      "Ġchanges": 3248,
      "ĠCroat": 3249,
      "Ġreview": 3250,
      "rav": 3251,
      "yr": 3252,
      "Ġnuc": 3253,
      "ĠChampions": 3254,
      "ĠSociety": 3255,
      "Ġcrew": 3256,
      "ĠFranc": 3257,
      "Ġproblems": 3258,
      "Ġnature": 3259,
      "Ġlegal": 3260,
      "Ad": 3261,
      "Ġaction": 3262,
      "ishop": 3263,
      "wide": 3264,
      "Ġgive": 3265,
      "ĠCont": 3266,
      "Ġreached": 3267,
      "Ġmission": 3268,
      "Ġreading": 3269,
      "Ġfriends": 3270,
      "47": 3271,
      "Ġstudies": 3272,
      "ĠIsrael": 3273,
      "oral": 3274,
      "cont": 3275,
      "Ġcontinu": 3276,
      "irt": 3277,
      "ĠGold": 3278,
      "Ġconditions": 3279,
      "ĠMex": 3280,
      "Â°": 3281,
      "Ġremov": 3282,
      "Ġanimals": 3283,
      "Ġblue": 3284,
      "ĠInstitute": 3285,
      "Ġcommonly": 3286,
      "ĠSl": 3287,
      "hood": 3288,
      "ĠBest": 3289,
      "za": 3290,
      "Ġoil": 3291,
      "ands": 3292,
      "ĠFre": 3293,
      "Ġpersonal": 3294,
      "Ġfootballer": 3295,
      "rim": 3296,
      "Ġlearn": 3297,
      "ression": 3298,
      "ises": 3299,
      "Ġearlier": 3300,
      "Ġself": 3301,
      "bed": 3302,
      "Ġalready": 3303,
      "ĠStud": 3304,
      "ĠBul": 3305,
      "idents": 3306,
      "Ġ1998": 3307,
      "uals": 3308,
      "Ġgas": 3309,
      "Ġcommit": 3310,
      "Ġproducts": 3311,
      "ĠSal": 3312,
      "Ġsat": 3313,
      "Ġcome": 3314,
      "Ġunits": 3315,
      "Ġearth": 3316,
      "oes": 3317,
      "ĠCourt": 3318,
      "Ġacademic": 3319,
      "Ġanti": 3320,
      "sych": 3321,
      "selves": 3322,
      "ĠSpe": 3323,
      "Ġplaced": 3324,
      "arent": 3325,
      "Ġcou": 3326,
      "itiz": 3327,
      "arter": 3328,
      "Ġproduce": 3329,
      "vention": 3330,
      "ĠIts": 3331,
      "Ġjournal": 3332,
      "unicip": 3333,
      "Ġbelieved": 3334,
      "Ġtowards": 3335,
      "resp": 3336,
      "oor": 3337,
      "Ġthemselves": 3338,
      "Ġtypically": 3339,
      "ĠAssociation": 3340,
      "cks": 3341,
      "Ġcultural": 3342,
      "burg": 3343,
      "ona": 3344,
      "ĠAlbert": 3345,
      "ĠDan": 3346,
      "vin": 3347,
      "ola": 3348,
      "Ġproblem": 3349,
      "Ġtorch": 3350,
      "porary": 3351,
      "ients": 3352,
      "Ġtarg": 3353,
      "Ġanthrop": 3354,
      "ockey": 3355,
      "Ġjoined": 3356,
      "It": 3357,
      "nd": 3358,
      "ĠTrans": 3359,
      "ĠColumb": 3360,
      "Ġdogs": 3361,
      "Ġobser": 3362,
      "Ġneeded": 3363,
      "Ġclear": 3364,
      "Ġcenter": 3365,
      "Ġscreen": 3366,
      "Ġlikely": 3367,
      "Ġestimated": 3368,
      "ĠBut": 3369,
      "lied": 3370,
      "Ġtoo": 3371,
      "Ġsoftware": 3372,
      "Ġdon": 3373,
      "Ġastron": 3374,
      "ĠMary": 3375,
      "Ġsequ": 3376,
      "120": 3377,
      "alled": 3378,
      "Ġleague": 3379,
      "Ġinvolved": 3380,
      "ees": 3381,
      "onse": 3382,
      "reme": 3383,
      "ĠPers": 3384,
      "ya": 3385,
      "Ġworked": 3386,
      "Ġprotect": 3387,
      "ini": 3388,
      "ĠHistory": 3389,
      "Ġconsider": 3390,
      "Ġaffect": 3391,
      "Ġcomplete": 3392,
      "Ġplant": 3393,
      "Ġvariety": 3394,
      "ĠJer": 3395,
      "Ġsea": 3396,
      "Ġblood": 3397,
      "Ġbuildings": 3398,
      "ĠHenry": 3399,
      "Ġbreak": 3400,
      "42": 3401,
      "orph": 3402,
      "Ġlines": 3403,
      "ellow": 3404,
      "Ġbought": 3405,
      "Ġmarried": 3406,
      "Ġsources": 3407,
      "Ġstage": 3408,
      "orks": 3409,
      "Ġquant": 3410,
      "Ġguitar": 3411,
      "Ġdefined": 3412,
      "Ġelement": 3413,
      "Ġwhom": 3414,
      "ĠId": 3415,
      "Ġlimited": 3416,
      "amm": 3417,
      "Ġriver": 3418,
      "Ġpurp": 3419,
      "ĠBal": 3420,
      "opp": 3421,
      "Ġpoet": 3422,
      "known": 3423,
      "Ġminor": 3424,
      "Ġfemale": 3425,
      "hing": 3426,
      "asion": 3427,
      "het": 3428,
      "Ġinj": 3429,
      "Ġfish": 3430,
      "Ġvia": 3431,
      "Ġ1997": 3432,
      "Ġregions": 3433,
      "Ġcust": 3434,
      "Ġfront": 3435,
      "ĠFrom": 3436,
      "Ġcommunic": 3437,
      "Ġdestroy": 3438,
      "Ġshows": 3439,
      "igr": 3440,
      "Ġmostly": 3441,
      "Ġcarbon": 3442,
      "Ġelected": 3443,
      "ghan": 3444,
      "Ġwhether": 3445,
      "400": 3446,
      "Ġ187": 3447,
      "Ġcollection": 3448,
      "Ġterritory": 3449,
      "ĠOld": 3450,
      "Ġrequire": 3451,
      "Ġfif": 3452,
      "ously": 3453,
      "ĠAcademy": 3454,
      "ĠAngl": 3455,
      "Ġbott": 3456,
      "uns": 3457,
      "Ġnecess": 3458,
      "aval": 3459,
      "ĠMount": 3460,
      "Ġopened": 3461,
      "ĠRad": 3462,
      "Ġenvironment": 3463,
      "ĠCenter": 3464,
      "Ġbroadcast": 3465,
      "ĠThomas": 3466,
      "Ġsett": 3467,
      "Ġoperations": 3468,
      "Ġrecent": 3469,
      "ĠiP": 3470,
      "This": 3471,
      "Ġdoll": 3472,
      "odern": 3473,
      "ĠIII": 3474,
      "unt": 3475,
      "Ġactress": 3476,
      "Ġdraw": 3477,
      "ĠStreet": 3478,
      "ĠPortuguese": 3479,
      "irit": 3480,
      "rol": 3481,
      "isions": 3482,
      "Ġexpect": 3483,
      "Ġâ": 3484,
      "ivity": 3485,
      "Ġapproximately": 3486,
      "ashington": 3487,
      "Ġcombined": 3488,
      "ĠTV": 3489,
      "Ġever": 3490,
      "isms": 3491,
      "Ġbur": 3492,
      "Ġcard": 3493,
      "Ġcontains": 3494,
      "Ġtechnology": 3495,
      "Ġflight": 3496,
      "Ġcompleted": 3497,
      "olf": 3498,
      "axim": 3499,
      "standing": 3500,
      "Ġbor": 3501,
      "Ġalle": 3502,
      "irds": 3503,
      "isation": 3504,
      "ĠZe": 3505,
      "Ġcode": 3506,
      "190": 3507,
      "Ġbelow": 3508,
      "ĠGrand": 3509,
      "ĠMusic": 3510,
      "ĠĠĠĠĠĠĠĠ": 3511,
      "Ġseparate": 3512,
      "Ġfarm": 3513,
      "ources": 3514,
      "ĠRev": 3515,
      "bre": 3516,
      "Ġconduct": 3517,
      "arc": 3518,
      "Ġplants": 3519,
      "respond": 3520,
      "pped": 3521,
      "Ġadapt": 3522,
      "Ġphysical": 3523,
      "Ġalways": 3524,
      "Ġfle": 3525,
      "Ġnight": 3526,
      "olk": 3527,
      "ĠBat": 3528,
      "ĠLaw": 3529,
      "Ġteams": 3530,
      "Ġbaseball": 3531,
      "sen": 3532,
      "iance": 3533,
      "Ġspok": 3534,
      "Ġdemon": 3535,
      "Ġcast": 3536,
      "Ġmetal": 3537,
      "Ġartists": 3538,
      "ĠMiddle": 3539,
      "ension": 3540,
      "Ġfuture": 3541,
      "orial": 3542,
      "izing": 3543,
      "Ġ1996": 3544,
      "ien": 3545,
      "Ġhistorical": 3546,
      "aled": 3547,
      "Ġuniversity": 3548,
      "anded": 3549,
      "ĠIslam": 3550,
      "Ġ||": 3551,
      "reland": 3552,
      "change": 3553,
      "Ġpieces": 3554,
      "NA": 3555,
      "Ġ2022": 3556,
      "rative": 3557,
      "omer": 3558,
      "ĠIm": 3559,
      "Ġprior": 3560,
      "Ġrelationship": 3561,
      "Ġhor": 3562,
      "ĠCat": 3563,
      "Ġdiscovered": 3564,
      "Ġcontract": 3565,
      "rog": 3566,
      "Ġlatter": 3567,
      "Ġfriend": 3568,
      "Ġethn": 3569,
      "uit": 3570,
      "Ġwife": 3571,
      "Ġeas": 3572,
      "Ġnumerous": 3573,
      "million": 3574,
      "ultural": 3575,
      "estic": 3576,
      "rying": 3577,
      "Ġsmaller": 3578,
      "38": 3579,
      "spe": 3580,
      "Ġpath": 3581,
      "ĠNorthern": 3582,
      "ĠJose": 3583,
      "Ġnar": 3584,
      "ĠKore": 3585,
      "Ġdecided": 3586,
      "Ġtemperature": 3587,
      "ĠIrish": 3588,
      "Ġbillion": 3589,
      "ĠSen": 3590,
      "ĠSwed": 3591,
      "Ġboard": 3592,
      "ollowing": 3593,
      "Ġtreatment": 3594,
      "ĠPortugal": 3595,
      "sec": 3596,
      "Ġspeed": 3597,
      "ĠSmith": 3598,
      "Ġbene": 3599,
      "ressed": 3600,
      "ĠOlympic": 3601,
      "ĠMark": 3602,
      "Ġpolicy": 3603,
      "Ġstatus": 3604,
      "Ġrat": 3605,
      "azine": 3606,
      "Ġproposed": 3607,
      "Ġkeep": 3608,
      "jan": 3609,
      "Ġalc": 3610,
      "Ġprofessional": 3611,
      "Ġvoc": 3612,
      "ĠWashington": 3613,
      "Ġsurround": 3614,
      "ĠScot": 3615,
      "ĠTer": 3616,
      "Ġconsum": 3617,
      "ĠAngel": 3618,
      "ĠRichard": 3619,
      "stein": 3620,
      ",\"": 3621,
      "Ġchemical": 3622,
      "ĠLouis": 3623,
      "Ġprevent": 3624,
      "DP": 3625,
      "ipl": 3626,
      "Ġscholars": 3627,
      "ĠFore": 3628,
      "Ġ1992": 3629,
      "ĠForce": 3630,
      "Ġ1994": 3631,
      "Ġnewsp": 3632,
      "Ġpurch": 3633,
      "ros": 3634,
      "Ġbetter": 3635,
      "Ġanalysis": 3636,
      "rd": 3637,
      "ĠRussia": 3638,
      "Ġwall": 3639,
      "estival": 3640,
      "ĠIreland": 3641,
      "uman": 3642,
      "Ġnearly": 3643,
      "Ä±": 3644,
      "ĠYear": 3645,
      "Ġtroops": 3646,
      "akers": 3647,
      "asty": 3648,
      "Ġplaying": 3649,
      "Ġcolor": 3650,
      "Ġmanager": 3651,
      "omy": 3652,
      "ĠLiber": 3653,
      "ĠItaly": 3654,
      "Ġrisk": 3655,
      "Ġdistinct": 3656,
      "Ġdirectly": 3657,
      "Ġrap": 3658,
      "ĠMah": 3659,
      "ĠEach": 3660,
      "Ġcompar": 3661,
      "Ġgreater": 3662,
      "Cl": 3663,
      "Wh": 3664,
      "ĠEastern": 3665,
      "Ġresponse": 3666,
      "Ġsaf": 3667,
      "Ġwide": 3668,
      "Ġmusical": 3669,
      "Ġwind": 3670,
      "Ġcollect": 3671,
      "ledge": 3672,
      "Ġcateg": 3673,
      "Ġreason": 3674,
      "Ġletter": 3675,
      "Ġcarried": 3676,
      "itz": 3677,
      "Ġconfl": 3678,
      "Ġdeal": 3679,
      "Ġdiscuss": 3680,
      "ĠCommun": 3681,
      "Ġ29": 3682,
      "Ġsupported": 3683,
      "ĠBuddha": 3684,
      "Ġmultiple": 3685,
      "Ġdocument": 3686,
      "CA": 3687,
      "enth": 3688,
      "Ġmention": 3689,
      "back": 3690,
      "ĊĠĊ": 3691,
      "onic": 3692,
      "Ġrace": 3693,
      "Ġdivided": 3694,
      "ĠAnn": 3695,
      "Ġtaking": 3696,
      "Ġprec": 3697,
      "ias": 3698,
      "Ġtraining": 3699,
      "Ġsquare": 3700,
      "ĠFin": 3701,
      "embly": 3702,
      "Am": 3703,
      "Ġfa": 3704,
      "Ġ35": 3705,
      "met": 3706,
      "Ġtherefore": 3707,
      "Ġdial": 3708,
      "ĠTom": 3709,
      "Ġcoach": 3710,
      "ĠBab": 3711,
      "Ġwhole": 3712,
      "49": 3713,
      "Ġbehind": 3714,
      "Ġcorrespond": 3715,
      "Ġask": 3716,
      "ells": 3717,
      "Ġdistrict": 3718,
      "ĠGroup": 3719,
      "anda": 3720,
      "ĠIslands": 3721,
      "inner": 3722,
      "Ġera": 3723,
      "33": 3724,
      "erc": 3725,
      "ĠSecond": 3726,
      "ĠSol": 3727,
      "tee": 3728,
      "Ġnoted": 3729,
      "rupt": 3730,
      "ocratic": 3731,
      "part": 3732,
      "Ġdaughter": 3733,
      "irg": 3734,
      "Ġlaws": 3735,
      "bour": 3736,
      "Ġhighly": 3737,
      "Ġmove": 3738,
      "ĠCompany": 3739,
      "ĠJewish": 3740,
      "Ġwestern": 3741,
      "Ġislands": 3742,
      "ointed": 3743,
      "ĠLee": 3744,
      "Ġimmedi": 3745,
      "cher": 3746,
      "zz": 3747,
      "unk": 3748,
      "Ġenough": 3749,
      "annel": 3750,
      "edy": 3751,
      "Ġweight": 3752,
      "Ġcenturies": 3753,
      "Ġprice": 3754,
      "Ġsoon": 3755,
      "Ġsigned": 3756,
      "van": 3757,
      "Ġpounds": 3758,
      "Ġpaper": 3759,
      "ĠTwo": 3760,
      "Ġidea": 3761,
      "39": 3762,
      "ĠAD": 3763,
      "ĠTra": 3764,
      "Ġcer": 3765,
      "Ġactive": 3766,
      "ĠCa": 3767,
      "Ġcitiz": 3768,
      "Ġthous": 3769,
      "ĠDist": 3770,
      "Ġdivision": 3771,
      "Ġobt": 3772,
      "gor": 3773,
      "Ġ1950": 3774,
      "ĠDu": 3775,
      "ĠDon": 3776,
      "Ġleader": 3777,
      "ares": 3778,
      "Ġpotential": 3779,
      "ĠBur": 3780,
      "ĠTex": 3781,
      "Ġchanged": 3782,
      "Ġproperties": 3783,
      "ensus": 3784,
      "Ġ1995": 3785,
      "Ġfocus": 3786,
      "Ġcosts": 3787,
      "Ġice": 3788,
      "Ġsus": 3789,
      "Ġinitial": 3790,
      "mitted": 3791,
      "heast": 3792,
      "Ġlargely": 3793,
      "Ġadopted": 3794,
      "Ġpian": 3795,
      "Ġcontain": 3796,
      "ging": 3797,
      "Ġbig": 3798,
      "Ġunit": 3799,
      "ĠVict": 3800,
      "Ġopt": 3801,
      "Ġscript": 3802,
      "ĠMass": 3803,
      "Ġnation": 3804,
      "Ġkind": 3805,
      "zech": 3806,
      "Ġprimarily": 3807,
      "hi": 3808,
      "Ġ1991": 3809,
      "Ġimplement": 3810,
      "Ġannual": 3811,
      "Ġens": 3812,
      "Ġax": 3813,
      "itors": 3814,
      "Ġdate": 3815,
      "Ġthreat": 3816,
      "phas": 3817,
      "ĠWho": 3818,
      "Ġtransfer": 3819,
      "44": 3820,
      "ĠTw": 3821,
      "oles": 3822,
      "ĠBron": 3823,
      "osing": 3824,
      "ĠRob": 3825,
      "ĠOlympics": 3826,
      "cel": 3827,
      "ĠCub": 3828,
      "Ġheav": 3829,
      "orpor": 3830,
      "ĠWall": 3831,
      "aud": 3832,
      "Ġpreviously": 3833,
      "Ġconstitution": 3834,
      "ĠInter": 3835,
      "Ġwriters": 3836,
      "ĠAfghan": 3837,
      "Ġwood": 3838,
      "ĠMet": 3839,
      "cean": 3840,
      "Ġequal": 3841,
      "ĠÎ": 3842,
      "ask": 3843,
      "Ġesc": 3844,
      "Ġlevels": 3845,
      "Ġartist": 3846,
      "Ġtree": 3847,
      "Ġcreate": 3848,
      "During": 3849,
      "Ġplaces": 3850,
      "Ġcook": 3851,
      "undred": 3852,
      "inated": 3853,
      "Ġmom": 3854,
      "imal": 3855,
      "Ġdisplay": 3856,
      "Ġcoin": 3857,
      "Ġclaimed": 3858,
      "light": 3859,
      "Ġsports": 3860,
      "ĠAlexand": 3861,
      "150": 3862,
      "Other": 3863,
      "edic": 3864,
      "Ġcomposer": 3865,
      "astic": 3866,
      "Ġcurrently": 3867,
      "Ġcompared": 3868,
      "ita": 3869,
      "ĠCast": 3870,
      "Ġbecoming": 3871,
      "Ġreve": 3872,
      "rich": 3873,
      "Ġmainly": 3874,
      "Ġdetail": 3875,
      "ena": 3876,
      "Ġpsych": 3877,
      "Ġdrug": 3878,
      "ender": 3879,
      "Ġ185": 3880,
      "Ġobserv": 3881,
      "If": 3882,
      "Ġmatch": 3883,
      "Ġcalcul": 3884,
      "hold": 3885,
      "Ġsolar": 3886,
      "ĠWil": 3887,
      "Ġrelatively": 3888,
      "ĠCongress": 3889,
      "Ġdouble": 3890,
      "|-": 3891,
      "Ġlook": 3892,
      "Ġissue": 3893,
      "TV": 3894,
      "Ġbound": 3895,
      "Ġpaid": 3896,
      "rown": 3897,
      "adium": 3898,
      "ĠBank": 3899,
      "Ġended": 3900,
      "Ġglobal": 3901,
      "46": 3902,
      "izations": 3903,
      "ĠBell": 3904,
      "Ġshown": 3905,
      "ĠAlf": 3906,
      "Ġdistance": 3907,
      "Ġruns": 3908,
      "ĠMore": 3909,
      "ĠVol": 3910,
      "Ġlocation": 3911,
      "Ġsettle": 3912,
      "ĠSuper": 3913,
      "war": 3914,
      "ada": 3915,
      "Ġ1993": 3916,
      "Ġinstitutions": 3917,
      "cles": 3918,
      "ologist": 3919,
      "Ġmicro": 3920,
      "aily": 3921,
      "Ġprograms": 3922,
      "Ġ90": 3923,
      "Ġtarget": 3924,
      "Ġtrack": 3925,
      "roll": 3926,
      "Ġmathemat": 3927,
      "Ġbomb": 3928,
      "Ġpack": 3929,
      "Ġdram": 3930,
      "ĠOp": 3931,
      "Ġprem": 3932,
      "Ġfeatured": 3933,
      "Ġmur": 3934,
      "ĠHill": 3935,
      "Ġagric": 3936,
      "Ġactivity": 3937,
      "ĠiPod": 3938,
      "600": 3939,
      "arly": 3940,
      "AT": 3941,
      "Ġcontem": 3942,
      "Ġbacter": 3943,
      "ĠSaint": 3944,
      "aters": 3945,
      "ĠGr": 3946,
      "risis": 3947,
      "ĠServ": 3948,
      "aring": 3949,
      "Ġcentre": 3950,
      "duc": 3951,
      "ĠSpain": 3952,
      "enes": 3953,
      "ĠCy": 3954,
      "ĠArmen": 3955,
      "Ġinfluenced": 3956,
      "Ã§": 3957,
      "ĠClass": 3958,
      "Ġexperience": 3959,
      "ketball": 3960,
      "Pe": 3961,
      "ĠDou": 3962,
      "Ġquick": 3963,
      "bl": 3964,
      "atur": 3965,
      "Ġmunicip": 3966,
      "ĠAut": 3967,
      "ĠDel": 3968,
      "Ġphilosophy": 3969,
      "mark": 3970,
      "pro": 3971,
      "Ġforced": 3972,
      "Ġship": 3973,
      "Ġspread": 3974,
      "Ġsociety": 3975,
      "Ġpoor": 3976,
      "icted": 3977,
      "Ġfamous": 3978,
      "Ġbod": 3979,
      "ĠCap": 3980,
      "ĠBig": 3981,
      "itt": 3982,
      "Ġdone": 3983,
      "riage": 3984,
      "Ġissues": 3985,
      "Ġdegree": 3986,
      "Ġult": 3987,
      "BS": 3988,
      "Then": 3989,
      "Ġroad": 3990,
      "Ġolder": 3991,
      "37": 3992,
      "Ġgoal": 3993,
      "va": 3994,
      "ĠKn": 3995,
      "reng": 3996,
      "verse": 3997,
      "ĠSystem": 3998,
      "ĠPrize": 3999,
      "ĠCzech": 4000,
      "olved": 4001,
      "Ġstep": 4002,
      "Ġfunctions": 4003,
      "ĠBerlin": 4004,
      "ĠTechn": 4005,
      "OS": 4006,
      "xts": 4007,
      "ulations": 4008,
      "Ġpromin": 4009,
      "illed": 4010,
      "65": 4011,
      "Ġspect": 4012,
      "Ġfailed": 4013,
      "Ġcharg": 4014,
      "Ġstudent": 4015,
      "ĠMartin": 4016,
      "Ġinn": 4017,
      "Ġborder": 4018,
      "Ġrepresented": 4019,
      "Ġsuggested": 4020,
      "mission": 4021,
      "enh": 4022,
      "ĠPet": 4023,
      "bles": 4024,
      "Ġcontroll": 4025,
      "Ġproperty": 4026,
      "ĠBelg": 4027,
      "Ġmethods": 4028,
      "Since": 4029,
      "Ġgives": 4030,
      "ĠSun": 4031,
      "onds": 4032,
      "Ġrules": 4033,
      "uild": 4034,
      "Ġhumans": 4035,
      "Ġspl": 4036,
      "use": 4037,
      "Ġlett": 4038,
      "nes": 4039,
      "Ġhockey": 4040,
      "Ġpresence": 4041,
      "liest": 4042,
      "Ġtable": 4043,
      "Ġshare": 4044,
      "Ġpassed": 4045,
      "De": 4046,
      "Ġcounter": 4047,
      "ĠHistor": 4048,
      "Ġdiss": 4049,
      "Ġlegisl": 4050,
      "Ġquestion": 4051,
      "iro": 4052,
      "osis": 4053,
      "ĠJust": 4054,
      "ĠKe": 4055,
      "Ġcomplet": 4056,
      "Ġwriter": 4057,
      "Ġinitially": 4058,
      "Ġcompon": 4059,
      "Ġ31": 4060,
      "eff": 4061,
      "alle": 4062,
      "Ġhyp": 4063,
      "uter": 4064,
      "Ġpolice": 4065,
      "Ġindependence": 4066,
      "ĠInt": 4067,
      "Ġrare": 4068,
      "2000": 4069,
      "Ġforest": 4070,
      "31": 4071,
      "Ġbasis": 4072,
      "Ġsummer": 4073,
      "Ġbr": 4074,
      "Ġconstruct": 4075,
      "km": 4076,
      "Ġconv": 4077,
      "Ġatom": 4078,
      "ĠJoseph": 4079,
      "Ġcars": 4080,
      "Ġhapp": 4081,
      "ĠSqu": 4082,
      "rack": 4083,
      "Ġclimate": 4084,
      "Ġpeace": 4085,
      "ĠOtt": 4086,
      "Ġcomposed": 4087,
      "Ġappears": 4088,
      "earch": 4089,
      "ĠJews": 4090,
      "ĠMag": 4091,
      "Ġbirths": 4092,
      "irgin": 4093,
      "rate": 4094,
      "Ġarran": 4095,
      "FL": 4096,
      "ech": 4097,
      "rief": 4098,
      "Ġwebs": 4099,
      "ĠDef": 4100,
      "ĠMuslim": 4101,
      "ĠSum": 4102,
      "ado": 4103,
      "ĠMad": 4104,
      "Ġlived": 4105,
      "Ġheart": 4106,
      "Ġmedic": 4107,
      "Ġheavy": 4108,
      "gebra": 4109,
      "which": 4110,
      "with": 4111,
      "Ġintended": 4112,
      "Ġcells": 4113,
      "Ġcomment": 4114,
      "Ġcontrovers": 4115,
      "Ġmole": 4116,
      "irm": 4117,
      "ĠFilm": 4118,
      "Ġadult": 4119,
      "Ġappointed": 4120,
      "amily": 4121,
      "Ġconver": 4122,
      "Ġinvestig": 4123,
      "igen": 4124,
      "Ġprovides": 4125,
      "Ġimpact": 4126,
      "ĠMel": 4127,
      "ansion": 4128,
      "Ġmatter": 4129,
      "ider": 4130,
      "ĠUnder": 4131,
      "ĠLeg": 4132,
      "Ġeastern": 4133,
      "apers": 4134,
      "Ġdeaths": 4135,
      "Ġantibiot": 4136,
      "inem": 4137,
      "raction": 4138,
      "ĠRock": 4139,
      "Ġwoman": 4140,
      "la": 4141,
      "ela": 4142,
      "ida": 4143,
      "ĠJud": 4144,
      "ception": 4145,
      "onia": 4146,
      "rete": 4147,
      "Ġhot": 4148,
      "Ġnine": 4149,
      "Ġonline": 4150,
      "uge": 4151,
      "yer": 4152,
      "Ġgot": 4153,
      "Ġsection": 4154,
      "ĠBos": 4155,
      "ecause": 4156,
      "Ġmeasure": 4157,
      "ĠScottish": 4158,
      "iated": 4159,
      "ua": 4160,
      "hesis": 4161,
      "Ġrespectively": 4162,
      "ĠSant": 4163,
      "teen": 4164,
      "cluding": 4165,
      "Ġblock": 4166,
      "Ġdirected": 4167,
      "Ġletters": 4168,
      "Ġurban": 4169,
      "Ġwinning": 4170,
      "Ġreduced": 4171,
      "Ġ70": 4172,
      "ospital": 4173,
      "oura": 4174,
      "ĠBre": 4175,
      "Ġcannot": 4176,
      "Ġresulting": 4177,
      "Ġscientific": 4178,
      "IC": 4179,
      "Ġsales": 4180,
      "Ġpages": 4181,
      "Ġgrand": 4182,
      "fficient": 4183,
      "ithm": 4184,
      "SC": 4185,
      "Ġfederal": 4186,
      "According": 4187,
      "ĠDr": 4188,
      "Ġ1986": 4189,
      "ĪĴ": 4190,
      "Ġbehavior": 4191,
      "actions": 4192,
      "Ġsens": 4193,
      "Ġnomin": 4194,
      "Ġlaunched": 4195,
      "ĠAwards": 4196,
      "ellig": 4197,
      "Ġ1989": 4198,
      "ĠTexas": 4199,
      "34": 4200,
      "AC": 4201,
      "elt": 4202,
      "ube": 4203,
      "ĠDepartment": 4204,
      "urt": 4205,
      "Ġpressure": 4206,
      "Ġrelay": 4207,
      "Ġweap": 4208,
      "Ġ1984": 4209,
      "ĠScience": 4210,
      "Ġtrue": 4211,
      "Ġpaint": 4212,
      "oud": 4213,
      "ĠChe": 4214,
      "ano": 4215,
      "Ġcrick": 4216,
      "acity": 4217,
      "Ġappearance": 4218,
      "Ġdisease": 4219,
      "Ġbring": 4220,
      "ĠRail": 4221,
      "ĠWhitehead": 4222,
      "Ġcontest": 4223,
      "Ġ1985": 4224,
      "band": 4225,
      "iy": 4226,
      "Ġdire": 4227,
      "ented": 4228,
      "Ġroute": 4229,
      "ils": 4230,
      "Ġsearch": 4231,
      "Ġaccepted": 4232,
      "opher": 4233,
      "Ġ150": 4234,
      "ĠBBC": 4235,
      "Ġliber": 4236,
      "opes": 4237,
      "Ġemb": 4238,
      "Ġedition": 4239,
      "Ġcards": 4240,
      "Ġpark": 4241,
      "Ġgod": 4242,
      "ĠDen": 4243,
      "Ġmaterials": 4244,
      "hol": 4245,
      "ĠAmericans": 4246,
      "Ġrecords": 4247,
      "Ġyet": 4248,
      "Ġgall": 4249,
      "Ġ32": 4250,
      "Ġ1983": 4251,
      "stitution": 4252,
      "well": 4253,
      "rect": 4254,
      "owl": 4255,
      "Ġstreng": 4256,
      "Ġseasons": 4257,
      "Ġarrest": 4258,
      "Ġability": 4259,
      "Ġdespite": 4260,
      "People": 4261,
      "ĠSouthern": 4262,
      "Ġdomestic": 4263,
      "Ġinhab": 4264,
      "rier": 4265,
      "Ġconsists": 4266,
      "55": 4267,
      "Ġelectric": 4268,
      "ĠPrince": 4269,
      "Ġmemory": 4270,
      "Ġprobably": 4271,
      "72": 4272,
      "Ġtrees": 4273,
      "Ġpun": 4274,
      "Ġhundred": 4275,
      "iled": 4276,
      "Ġegg": 4277,
      "ĠIdol": 4278,
      "ĠBob": 4279,
      "acing": 4280,
      "Ġ500": 4281,
      "ilies": 4282,
      "arters": 4283,
      "Ġmedical": 4284,
      "Ph": 4285,
      "ĠBase": 4286,
      "ĠWales": 4287,
      "ographic": 4288,
      "ĠBrown": 4289,
      "atre": 4290,
      "Ġreach": 4291,
      "Ġlun": 4292,
      "Ġcontrast": 4293,
      "=\"": 4294,
      "ĠRome": 4295,
      "iny": 4296,
      "Ġsister": 4297,
      "Ġmiddle": 4298,
      "ĠĊĊ": 4299,
      "Ġregional": 4300,
      "Ġreform": 4301,
      "obile": 4302,
      "ĠEmperor": 4303,
      "Ġlink": 4304,
      "Ġgreen": 4305,
      "Ġstore": 4306,
      "Ġbasic": 4307,
      "ĠGovernment": 4308,
      "ĠJul": 4309,
      "Ġderived": 4310,
      "Ġlaunch": 4311,
      "anges": 4312,
      "Ġ180": 4313,
      "ĠBuddhism": 4314,
      "Ġalternative": 4315,
      "ĠVictor": 4316,
      "aph": 4317,
      "ibly": 4318,
      "Ġvictory": 4319,
      "ĠMiss": 4320,
      "Ġattrib": 4321,
      "Ġcompetition": 4322,
      "Ġincorpor": 4323,
      "ala": 4324,
      "Ġexc": 4325,
      "Ġawarded": 4326,
      "ying": 4327,
      "Ġchief": 4328,
      "umin": 4329,
      "ĠEv": 4330,
      "Ġconqu": 4331,
      "lines": 4332,
      "ply": 4333,
      "Ġtheore": 4334,
      "Ġsense": 4335,
      "ultan": 4336,
      "Ġearliest": 4337,
      "Ġfinished": 4338,
      "Ġorganization": 4339,
      "Ġactivities": 4340,
      "99": 4341,
      "inet": 4342,
      "ĠOff": 4343,
      "Ġdecision": 4344,
      "mir": 4345,
      "Ġ1920": 4346,
      "Ġcitizens": 4347,
      "ĠSand": 4348,
      "otion": 4349,
      "uated": 4350,
      "Ġlay": 4351,
      "Ġassum": 4352,
      "iques": 4353,
      "Ġrapid": 4354,
      "Ġdecre": 4355,
      "Ġliterature": 4356,
      "perial": 4357,
      "Ġoffered": 4358,
      "rm": 4359,
      "Ġopening": 4360,
      "ĠPolish": 4361,
      "Se": 4362,
      "ĠÂ": 4363,
      "ĠTor": 4364,
      "ĠCivil": 4365,
      "sw": 4366,
      "ully": 4367,
      "lem": 4368,
      "ĠRom": 4369,
      "ĠGreen": 4370,
      "Ġscored": 4371,
      "ĠArabic": 4372,
      "ii": 4373,
      "Ġmess": 4374,
      "ĠLove": 4375,
      "Bl": 4376,
      "Ġfoot": 4377,
      "Ġ1930": 4378,
      "ocks": 4379,
      "illa": 4380,
      "ev": 4381,
      "ĠGra": 4382,
      "Ġalcoh": 4383,
      "oo": 4384,
      "gency": 4385,
      "ĠAtlantic": 4386,
      "ĠMur": 4387,
      "Ġidentified": 4388,
      "SA": 4389,
      "Ġdeep": 4390,
      "ternet": 4391,
      "Ġindividuals": 4392,
      "Ġdollars": 4393,
      "ĠMat": 4394,
      "ota": 4395,
      "Ġmachine": 4396,
      "fect": 4397,
      "Ġstars": 4398,
      "Ġalph": 4399,
      "iform": 4400,
      "Ġcandid": 4401,
      "Ġ300": 4402,
      "ĠAlban": 4403,
      "ĠOx": 4404,
      "Ġ36": 4405,
      "Ġresistance": 4406,
      "Ġreligion": 4407,
      "ĠHam": 4408,
      "Ġmodels": 4409,
      "rey": 4410,
      "otic": 4411,
      "Ġprin": 4412,
      "ĠSund": 4413,
      "Ġbelief": 4414,
      "win": 4415,
      "ĠNavy": 4416,
      "oration": 4417,
      "Ġfrequently": 4418,
      "Ġvillage": 4419,
      "ags": 4420,
      "Ġspirit": 4421,
      "ĠParliament": 4422,
      "Ġobjects": 4423,
      "ĠPac": 4424,
      "ĠVer": 4425,
      "add": 4426,
      "Ġgra": 4427,
      "Ġemp": 4428,
      "Ġcharge": 4429,
      "Ġfigure": 4430,
      "bai": 4431,
      "eld": 4432,
      "ams": 4433,
      "Ġgraph": 4434,
      "Ġdynasty": 4435,
      "Ġstra": 4436,
      "Ġaddress": 4437,
      "ĠCard": 4438,
      "ĠTele": 4439,
      "imb": 4440,
      "ĠLu": 4441,
      "Ġresponsible": 4442,
      "ĠAnother": 4443,
      "Ġrecover": 4444,
      "Ġcreation": 4445,
      "ĠTheir": 4446,
      "Ġ1981": 4447,
      "ĠClub": 4448,
      "ackson": 4449,
      "Ġwalk": 4450,
      "ĠAh": 4451,
      "Ġgiving": 4452,
      "ĠMill": 4453,
      "zerbai": 4454,
      "zerbaijan": 4455,
      "road": 4456,
      "isted": 4457,
      "Ġunc": 4458,
      "Ġpreser": 4459,
      "Ġdialect": 4460,
      "cest": 4461,
      "Ġchall": 4462,
      "ĠKar": 4463,
      "Ġordered": 4464,
      "AM": 4465,
      "Ġaim": 4466,
      "Ġ1988": 4467,
      "Ġworldwide": 4468,
      "ĠCommon": 4469,
      "Ġsoldiers": 4470,
      "Ġbal": 4471,
      "ession": 4472,
      "overs": 4473,
      "180": 4474,
      "ĠAirport": 4475,
      "ih": 4476,
      "Ã¤": 4477,
      "Ġleaving": 4478,
      "85": 4479,
      "ĠâĢ": 4480,
      "Ġtre": 4481,
      "Ġdro": 4482,
      "ĠEr": 4483,
      "erman": 4484,
      "Ġattacks": 4485,
      "lection": 4486,
      "Ġflu": 4487,
      "ĠChic": 4488,
      "Ġamb": 4489,
      "ieties": 4490,
      "anguage": 4491,
      "Ġrise": 4492,
      "Ġchart": 4493,
      "ĠVirgin": 4494,
      "Ġir": 4495,
      "Ġrunning": 4496,
      "Ġstations": 4497,
      "Ġentered": 4498,
      "Ġslow": 4499,
      "Ġauthority": 4500,
      "Ġindustrial": 4501,
      "Ġfavor": 4502,
      "Ġcup": 4503,
      "urches": 4504,
      "Ġgir": 4505,
      "thing": 4506,
      "arsh": 4507,
      "ĠSeries": 4508,
      "Ġcollege": 4509,
      "Ġoccurred": 4510,
      "Notes": 4511,
      "Ġsac": 4512,
      "Ġey": 4513,
      "Ġearned": 4514,
      "Ġbenef": 4515,
      "Is": 4516,
      "water": 4517,
      "Ġconne": 4518,
      "Ġprison": 4519,
      "Ġapplied": 4520,
      "She": 4521,
      "eck": 4522,
      "Ġ1982": 4523,
      "Ġconstant": 4524,
      "arents": 4525,
      "Ġdebut": 4526,
      "Ġsets": 4527,
      "Ġsecret": 4528,
      "iga": 4529,
      "Ġbrief": 4530,
      "Ġnative": 4531,
      "ĠHung": 4532,
      "Ġplanned": 4533,
      "ĠColomb": 4534,
      "ĠDistrict": 4535,
      "Further": 4536,
      "acc": 4537,
      "Ġargued": 4538,
      "ĠJo": 4539,
      "ublican": 4540,
      "ĠAsh": 4541,
      "Ġsecurity": 4542,
      "ĠRecords": 4543,
      "ĠOper": 4544,
      "Ġpattern": 4545,
      "ĠMexico": 4546,
      "ella": 4547,
      "=$": 4548,
      "Ġsport": 4549,
      "alo": 4550,
      "Ġcontinue": 4551,
      "Ġ45": 4552,
      "Ġ1979": 4553,
      "ĠCarl": 4554,
      "ĠBoth": 4555,
      "iah": 4556,
      "orders": 4557,
      "Ġpasseng": 4558,
      "Ġpresented": 4559,
      "Ġmanagement": 4560,
      "Ġearthqu": 4561,
      "Ġpil": 4562,
      "ipment": 4563,
      "nam": 4564,
      "Ã¨": 4565,
      "rif": 4566,
      "Ġqual": 4567,
      "Ġsuggest": 4568,
      "Ġinstrument": 4569,
      "ĠWars": 4570,
      "ograp": 4571,
      "anning": 4572,
      "ĠScotland": 4573,
      "ĠElect": 4574,
      "odox": 4575,
      "ĠAnton": 4576,
      "ĠThat": 4577,
      "Ġoverall": 4578,
      "Ġautom": 4579,
      "Ġavoid": 4580,
      "When": 4581,
      "ĠAv": 4582,
      "ĠGames": 4583,
      "ĠLos": 4584,
      "Ġalt": 4585,
      "ĠLake": 4586,
      "Ġadj": 4587,
      "ĠĠĠ": 4588,
      "bury": 4589,
      "izes": 4590,
      "Ġenem": 4591,
      "Ġlif": 4592,
      "Ġthings": 4593,
      "ĠMa": 4594,
      "Ġfort": 4595,
      "Ġdead": 4596,
      "Ġexhib": 4597,
      "Ġchampions": 4598,
      "Ġfinally": 4599,
      "Ġcommunities": 4600,
      "Ġturned": 4601,
      "pired": 4602,
      "Ġstay": 4603,
      "Ġanimal": 4604,
      "ook": 4605,
      "enz": 4606,
      "ĠBern": 4607,
      "ĠBuddhist": 4608,
      "song": 4609,
      "Ġparties": 4610,
      "Ġdefeated": 4611,
      "Ġminister": 4612,
      "Ġoperating": 4613,
      "Ġmurder": 4614,
      "Ġwebsite": 4615,
      "Ġut": 4616,
      "Ġburn": 4617,
      "ĠLife": 4618,
      "Ġcrisis": 4619,
      "Ġhar": 4620,
      "Ġrecon": 4621,
      "Ġaspect": 4622,
      "osen": 4623,
      "Ġethnic": 4624,
      "ulpt": 4625,
      "ĠNews": 4626,
      "Ġclassical": 4627,
      "Ġoldest": 4628,
      "Ġalgor": 4629,
      "Ġ1976": 4630,
      "Ġexpansion": 4631,
      "Ġmis": 4632,
      "ensity": 4633,
      "ĠLab": 4634,
      "Ġserious": 4635,
      "Ġfigures": 4636,
      "Ġdefinition": 4637,
      "Ġcouncil": 4638,
      "Ġ120": 4639,
      "velopment": 4640,
      "venue": 4641,
      "Ġbasketball": 4642,
      "ĠTown": 4643,
      "Ġeat": 4644,
      "ĠLad": 4645,
      "Ġships": 4646,
      "Ġmagazine": 4647,
      "ĠPeople": 4648,
      "Ġsubs": 4649,
      "aging": 4650,
      "Ġsuc": 4651,
      "Ġstarting": 4652,
      "Ġinterpret": 4653,
      "Ġclosed": 4654,
      "can": 4655,
      "ĠJes": 4656,
      "Ġvalues": 4657,
      "Ġknowledge": 4658,
      "Ġmoment": 4659,
      "bur": 4660,
      "uate": 4661,
      "Ġvary": 4662,
      "ogen": 4663,
      "Ġquickly": 4664,
      "Ġcry": 4665,
      "Ġplays": 4666,
      "ĠBah": 4667,
      "Ġtexts": 4668,
      "Ġpositive": 4669,
      "Ġ1987": 4670,
      "Ġinterview": 4671,
      "ĠColumbia": 4672,
      "rical": 4673,
      "oring": 4674,
      "Ġrepe": 4675,
      "Ġreject": 4676,
      "ĠJean": 4677,
      "rone": 4678,
      "nel": 4679,
      "Ġcomes": 4680,
      "Ġ1969": 4681,
      "Ġapproach": 4682,
      "ĠCroatia": 4683,
      "Ġremoved": 4684,
      "43": 4685,
      "ĠSing": 4686,
      "ĠMr": 4687,
      "Ġdepend": 4688,
      "ĠJohnson": 4689,
      "Ġoperation": 4690,
      "ĠBang": 4691,
      "Ġprovince": 4692,
      "Ġofficer": 4693,
      "Ġideas": 4694,
      "rie": 4695,
      "Ġgoing": 4696,
      "ĠChicago": 4697,
      "edom": 4698,
      "Ġfully": 4699,
      "Ġquarter": 4700,
      "Ġmountain": 4701,
      "ĠRevolution": 4702,
      "Ġcerem": 4703,
      "=$<<": 4704,
      "ĠInc": 4705,
      "oston": 4706,
      "88": 4707,
      "aved": 4708,
      "Ġreplace": 4709,
      "Ġdeclared": 4710,
      "ĠNations": 4711,
      "Ġscore": 4712,
      "ĠCommission": 4713,
      "Ġ1974": 4714,
      "ĠCarol": 4715,
      "Ġefforts": 4716,
      "96": 4717,
      "ygen": 4718,
      "orage": 4719,
      "ĠAzerbaijan": 4720,
      "iring": 4721,
      "ĠJackson": 4722,
      "Ġemphas": 4723,
      "Ġexistence": 4724,
      "Ġneighbor": 4725,
      "den": 4726,
      "ĊĊĠ": 4727,
      "Ġphen": 4728,
      "Ġhy": 4729,
      "amin": 4730,
      "ĠMid": 4731,
      "arden": 4732,
      "\"),": 4733,
      "Ġalgebra": 4734,
      "Ġattract": 4735,
      "Ġrecognized": 4736,
      "ĠFrancisc": 4737,
      "Ġfifth": 4738,
      "aland": 4739,
      "ortun": 4740,
      "Ġstructures": 4741,
      "Early": 4742,
      "Ġfell": 4743,
      "Ġkil": 4744,
      "Ġformal": 4745,
      "Ġdifference": 4746,
      "Ġallowing": 4747,
      "ĠGreece": 4748,
      "Ġengineering": 4749,
      "ĠJim": 4750,
      "ressive": 4751,
      "Ġraised": 4752,
      "Ġclaims": 4753,
      "ĠAM": 4754,
      "uls": 4755,
      "see": 4756,
      "Ġjob": 4757,
      "Ġcondition": 4758,
      "Ġcourse": 4759,
      "Ġsen": 4760,
      "Ġresulted": 4761,
      "Ġexamples": 4762,
      "By": 4763,
      "ĠTimes": 4764,
      "aded": 4765,
      "Ġ1975": 4766,
      "Ġhelped": 4767,
      "*.": 4768,
      "vation": 4769,
      "Ġupp": 4770,
      "ĠPan": 4771,
      "ĠCambridge": 4772,
      "rine": 4773,
      "Ġdedic": 4774,
      "Ġsexual": 4775,
      "ĠSar": 4776,
      "Ġcontaining": 4777,
      "Ġextended": 4778,
      "Ġbelong": 4779,
      "64": 4780,
      "ĠâĢĶ": 4781,
      "Ġpair": 4782,
      "Ġinches": 4783,
      "Ġ1972": 4784,
      "Ġallows": 4785,
      "Some": 4786,
      "ĠBet": 4787,
      "ĠLibrary": 4788,
      "Ġvote": 4789,
      "Ġevolution": 4790,
      "BA": 4791,
      "Ġour": 4792,
      "Ġve": 4793,
      "Ġnotable": 4794,
      "Ġshot": 4795,
      "Ġsynt": 4796,
      "isters": 4797,
      "thodox": 4798,
      "Ġjournalist": 4799,
      "ĠAngeles": 4800,
      "ĠSong": 4801,
      "ĠFootball": 4802,
      "ĠLand": 4803,
      "Ġadvert": 4804,
      "Ġ1945": 4805,
      "ĠPrime": 4806,
      "Ġprogramming": 4807,
      "Ġeffective": 4808,
      "ĠMu": 4809,
      "ĠMer": 4810,
      "Ġadministration": 4811,
      "Ġmaxim": 4812,
      "ĠCamp": 4813,
      "ĠLater": 4814,
      "ĠSecret": 4815,
      "Ġ1940": 4816,
      "Ġnews": 4817,
      "Ġstudio": 4818,
      "Ġcapacity": 4819,
      "TA": 4820,
      "kin": 4821,
      "Ġcontact": 4822,
      "Ġdistingu": 4823,
      "Ġtend": 4824,
      "ato": 4825,
      "ĠLord": 4826,
      "ĠEdward": 4827,
      "ĠGeorg": 4828,
      "Ġdistribution": 4829,
      "iplom": 4830,
      "yal": 4831,
      "Ġpet": 4832,
      "ĠMoon": 4833,
      "Ġgrew": 4834,
      "ĠPublic": 4835,
      "ĠGame": 4836,
      "aling": 4837,
      "Ġformation": 4838,
      "Ġepisode": 4839,
      "Ġbass": 4840,
      "ĠOut": 4841,
      "Ġbecomes": 4842,
      "English": 4843,
      "inking": 4844,
      "ceeded": 4845,
      "Ġcle": 4846,
      "Ġfast": 4847,
      "ĠAst": 4848,
      "oting": 4849,
      "Ġnotes": 4850,
      "Ġshowed": 4851,
      "ĠOrgan": 4852,
      "Ġban": 4853,
      "akh": 4854,
      "Ġserve": 4855,
      "Ġsymbol": 4856,
      "Ġreaction": 4857,
      "Ġprime": 4858,
      "Ġleaders": 4859,
      "Ġfamilies": 4860,
      "ĠRadio": 4861,
      "Ġagreement": 4862,
      "95": 4863,
      "icit": 4864,
      "Ġversions": 4865,
      "nia": 4866,
      "ĠJack": 4867,
      "Ġofficially": 4868,
      "Ġmarriage": 4869,
      "Ġconsequ": 4870,
      "ĠOrder": 4871,
      "ĠOb": 4872,
      "Ġsculpt": 4873,
      "Ġelections": 4874,
      "Ġreceive": 4875,
      "Ġbirds": 4876,
      "omers": 4877,
      "ĠRoad": 4878,
      "New": 4879,
      "encies": 4880,
      "Ġcho": 4881,
      "Ġgrowing": 4882,
      "Ġsaying": 4883,
      "ducation": 4884,
      "ĠTim": 4885,
      "Ġwithd": 4886,
      "ĠOl": 4887,
      "ieval": 4888,
      "iary": 4889,
      "Ġface": 4890,
      "Ġparents": 4891,
      "Ġmill": 4892,
      "Ġ75": 4893,
      "ennis": 4894,
      "41": 4895,
      "Ġ)": 4896,
      "ĠChile": 4897,
      "cluded": 4898,
      "Ġhistorian": 4899,
      "ken": 4900,
      "Ġ:": 4901,
      "Ġtold": 4902,
      "Ġhol": 4903,
      "ĠPre": 4904,
      "ĠFollowing": 4905,
      "ĠUN": 4906,
      "Ġsimple": 4907,
      "Ġreser": 4908,
      "ĠMajor": 4909,
      "Ġsplit": 4910,
      "ĠPacific": 4911,
      "Pl": 4912,
      "ishes": 4913,
      "Ġrot": 4914,
      "ĠBarb": 4915,
      "Ġconflict": 4916,
      "ancy": 4917,
      "ĠSo": 4918,
      "Ġ2023": 4919,
      "Ġelim": 4920,
      "force": 4921,
      "Ab": 4922,
      "col": 4923,
      "Ġmort": 4924,
      "ĠNob": 4925,
      "such": 4926,
      "ĠTime": 4927,
      "Ġsector": 4928,
      "comp": 4929,
      "Ġnecessary": 4930,
      "oper": 4931,
      "Ġcompounds": 4932,
      "Ġobserved": 4933,
      "Ġimmediately": 4934,
      "Ġsimply": 4935,
      "Ġmixed": 4936,
      "Ġalbums": 4937,
      "Ġreference": 4938,
      "onn": 4939,
      "aria": 4940,
      "Ġharm": 4941,
      "igration": 4942,
      "ĠStar": 4943,
      "Ġtwent": 4944,
      "ixt": 4945,
      "ĠAri": 4946,
      "Ġexpressed": 4947,
      "Ġexpected": 4948,
      "Sh": 4949,
      "ait": 4950,
      "Ġtick": 4951,
      "ĠJos": 4952,
      "Ġrefers": 4953,
      "ifying": 4954,
      "fall": 4955,
      "ĠFort": 4956,
      "Ġrain": 4957,
      "Ġmovie": 4958,
      "down": 4959,
      "ĠNic": 4960,
      "Ġslight": 4961,
      "Be": 4962,
      "Ġpal": 4963,
      "ĠProt": 4964,
      "Ġprominent": 4965,
      "Ġvirt": 4966,
      "ĠBlue": 4967,
      "Ġequipment": 4968,
      "Ġmyth": 4969,
      "Ġmind": 4970,
      "Ġtrain": 4971,
      "Ġmarked": 4972,
      "ĠDespite": 4973,
      "Ġuns": 4974,
      "cons": 4975,
      "ety": 4976,
      "ĠTop": 4977,
      "ĠCorn": 4978,
      "ĠBor": 4979,
      "Ġdepart": 4980,
      "Ġarrived": 4981,
      "gent": 4982,
      "itable": 4983,
      "ache": 4984,
      "ĠProg": 4985,
      "Ã³n": 4986,
      "%.": 4987,
      "ĠFer": 4988,
      "Ġund": 4989,
      "Ġteac": 4990,
      "Ġeffic": 4991,
      "67": 4992,
      "ologists": 4993,
      "Ġpositions": 4994,
      "Ġconcert": 4995,
      "Ġearthquake": 4996,
      "vement": 4997,
      "Ġgained": 4998,
      "ĠIran": 4999,
      "ĠKhan": 5000,
      "Ġsecondary": 5001,
      "Ġcritical": 5002,
      "Ġsubsequently": 5003,
      "iant": 5004,
      "Ġbrain": 5005,
      "Ġstaff": 5006,
      "Ġattend": 5007,
      "ĠOttoman": 5008,
      "Ġbatt": 5009,
      "Ġwrite": 5010,
      "Ġmedal": 5011,
      "Ġwinter": 5012,
      "wise": 5013,
      "Ġseat": 5014,
      "Ġ400": 5015,
      "anner": 5016,
      "Ġ1978": 5017,
      "zant": 5018,
      "Ġec": 5019,
      "ĠBoston": 5020,
      "usion": 5021,
      "Ġranked": 5022,
      "Ġbranch": 5023,
      "ĠTem": 5024,
      "Ġattention": 5025,
      "bro": 5026,
      "Ġdu": 5027,
      "ĠSub": 5028,
      "range": 5029,
      "ĠCommit": 5030,
      "Ġlisted": 5031,
      "Ġsubsequent": 5032,
      "With": 5033,
      "Ġinternal": 5034,
      "ĠSir": 5035,
      "thlet": 5036,
      "Ġactually": 5037,
      "ĠSil": 5038,
      "Ġarticle": 5039,
      "Ġmentioned": 5040,
      "Ġquality": 5041,
      "Ġcontemporary": 5042,
      "Ġancest": 5043,
      "Ġbra": 5044,
      "Ġasked": 5045,
      "kins": 5046,
      "inity": 5047,
      "Ġsites": 5048,
      "eder": 5049,
      "ederation": 5050,
      "ittle": 5051,
      "ĠPo": 5052,
      "ĠJac": 5053,
      "ĠViet": 5054,
      "Ġinside": 5055,
      "Ġvolume": 5056,
      "Ġuniverse": 5057,
      "Ġregarded": 5058,
      "Ġsides": 5059,
      "ĠBall": 5060,
      "Ġ1971": 5061,
      "Ġmuseum": 5062,
      "ĠAfghanistan": 5063,
      "icks": 5064,
      "ĠSk": 5065,
      "Ġbey": 5066,
      "Ġplans": 5067,
      "ĠAsian": 5068,
      "Ġequival": 5069,
      "osm": 5070,
      "Ġdirection": 5071,
      "Ġupper": 5072,
      "imens": 5073,
      "Ġshared": 5074,
      "Ġspeech": 5075,
      "hy": 5076,
      "ani": 5077,
      "ĠTest": 5078,
      "ĠSu": 5079,
      "Ġmonarch": 5080,
      "Ġillust": 5081,
      "Ġways": 5082,
      "icians": 5083,
      "Ġnormal": 5084,
      "Ġpurpose": 5085,
      "ĠHel": 5086,
      "orter": 5087,
      "ector": 5088,
      "Ġ1977": 5089,
      "160": 5090,
      "One": 5091,
      "amine": 5092,
      "ĠFamily": 5093,
      "Ġimpl": 5094,
      "Ġreflect": 5095,
      "more": 5096,
      "ĠGo": 5097,
      "Ġattempted": 5098,
      "Ġdark": 5099,
      "Ġlabor": 5100,
      "place": 5101,
      "Ġorbit": 5102,
      "ĠOxford": 5103,
      "%,": 5104,
      "aya": 5105,
      "Ġshoot": 5106,
      "Ġrecently": 5107,
      "Ġexperim": 5108,
      "Ġfollows": 5109,
      "ĠAdd": 5110,
      "ĠCop": 5111,
      "uting": 5112,
      "Ġexchange": 5113,
      "Ġdoct": 5114,
      "ĠZealand": 5115,
      "ĠAndrew": 5116,
      "Ġpra": 5117,
      "level": 5118,
      "Ġvan": 5119,
      "Ġofficials": 5120,
      "Ġvehicles": 5121,
      "urb": 5122,
      "Ġroom": 5123,
      "Ġrecomm": 5124,
      "Ġbeyond": 5125,
      "800": 5126,
      "Ġsell": 5127,
      "eding": 5128,
      "Ġwear": 5129,
      "formed": 5130,
      "ĠBroad": 5131,
      "Ġalcohol": 5132,
      "',": 5133,
      "claim": 5134,
      "Ġ1968": 5135,
      "Ġbelieve": 5136,
      "zy": 5137,
      "iger": 5138,
      "ĠDar": 5139,
      "Ġcontent": 5140,
      "Ġapparent": 5141,
      "Ġones": 5142,
      "Ġexact": 5143,
      "ighter": 5144,
      "ibb": 5145,
      "ĠThus": 5146,
      "Ġlawyer": 5147,
      "Ġdigital": 5148,
      "54": 5149,
      "urrent": 5150,
      "ĠDo": 5151,
      "ĠChap": 5152,
      "Ġprep": 5153,
      "ira": 5154,
      "Ġbeat": 5155,
      "ifically": 5156,
      "Ġtechniques": 5157,
      "uilding": 5158,
      "ĠMos": 5159,
      "odia": 5160,
      "Ġran": 5161,
      "mad": 5162,
      "Ġfolk": 5163,
      "Ġstop": 5164,
      "ĠFour": 5165,
      "agon": 5166,
      "Ġetc": 5167,
      "oned": 5168,
      "ĠDirect": 5169,
      "Ġworkers": 5170,
      "ID": 5171,
      "Ġple": 5172,
      "Ġpick": 5173,
      "ansas": 5174,
      "Ġagreed": 5175,
      "Ġapplications": 5176,
      "ĠFrancisco": 5177,
      "mat": 5178,
      "ette": 5179,
      "Ġspend": 5180,
      "Ġ1973": 5181,
      "\").": 5182,
      "Ġlic": 5183,
      "Ġcarry": 5184,
      "ructure": 5185,
      "rum": 5186,
      "Ġpit": 5187,
      "ĠAber": 5188,
      "Ġmeeting": 5189,
      "lies": 5190,
      "ening": 5191,
      "ĠBi": 5192,
      "usal": 5193,
      "ulate": 5194,
      "Ġoccurs": 5195,
      "Ġprocesses": 5196,
      "ĠSunday": 5197,
      "Ġinspired": 5198,
      "Ġkept": 5199,
      "Ġdefeat": 5200,
      "Ġvow": 5201,
      "Ġresources": 5202,
      "Ġroll": 5203,
      "Ġnegative": 5204,
      "Gen": 5205,
      "ĠUr": 5206,
      "Ġauth": 5207,
      "Ġspoken": 5208,
      "BM": 5209,
      "gal": 5210,
      "Ġpan": 5211,
      "lywood": 5212,
      "Ġlimit": 5213,
      "isf": 5214,
      "Ġcart": 5215,
      "ĠCost": 5216,
      "Ġneut": 5217,
      "Ã¡n": 5218,
      "ĠResearch": 5219,
      "ĠCommittee": 5220,
      "Comp": 5221,
      "mas": 5222,
      "ĠSpace": 5223,
      "Ġadvant": 5224,
      "olitan": 5225,
      "Ġpiano": 5226,
      "ĠLis": 5227,
      "ĠOver": 5228,
      "ĠAlso": 5229,
      "EC": 5230,
      "ĠSur": 5231,
      "ĠProv": 5232,
      "ashion": 5233,
      "house": 5234,
      "Ġsn": 5235,
      "Ġanaly": 5236,
      "ĠAk": 5237,
      "ĠAud": 5238,
      "Ġstru": 5239,
      "Ġapples": 5240,
      "rams": 5241,
      "Ġprovin": 5242,
      "Ġhouses": 5243,
      "78": 5244,
      "dam": 5245,
      "Ġbit": 5246,
      "Ġ(),": 5247,
      "ĠYou": 5248,
      "Ġopposition": 5249,
      "Ġnewspaper": 5250,
      "car": 5251,
      "Ġwanted": 5252,
      "ĠEp": 5253,
      "Ġenter": 5254,
      "Ġclubs": 5255,
      "Ġachieved": 5256,
      "56": 5257,
      "alism": 5258,
      "oured": 5259,
      "elly": 5260,
      "Ġexclus": 5261,
      "Ġpoll": 5262,
      "ĠFound": 5263,
      "Ġdescribe": 5264,
      "Ġnuclear": 5265,
      "ĠNether": 5266,
      "Ġleave": 5267,
      "Ġprefer": 5268,
      "Ġincome": 5269,
      "Ġgreatest": 5270,
      "aska": 5271,
      "Ġnob": 5272,
      "Ġdrive": 5273,
      "Ġfactors": 5274,
      "Ġfaith": 5275,
      "ĠBol": 5276,
      "aka": 5277,
      "oke": 5278,
      "Ġdecades": 5279,
      "Ġdescript": 5280,
      "Ġorganizations": 5281,
      "Ġsignificantly": 5282,
      "Ġcovered": 5283,
      "Ġoxygen": 5284,
      "ĠTurkish": 5285,
      "ĠService": 5286,
      "iced": 5287,
      "Ġreign": 5288,
      "Ġrough": 5289,
      "Ġcommission": 5290,
      "Ġmoving": 5291,
      "ĠSocial": 5292,
      "cription": 5293,
      "Ġdestroyed": 5294,
      "Ġeggs": 5295,
      "Ġpron": 5296,
      "ĠFestival": 5297,
      "Pro": 5298,
      "Ġwealth": 5299,
      "iverse": 5300,
      "Ġcombination": 5301,
      "wan": 5302,
      "ĠBan": 5303,
      "pper": 5304,
      "Ġleaves": 5305,
      "Ġresidents": 5306,
      "Ġprotest": 5307,
      "86": 5308,
      "entially": 5309,
      "ĠLew": 5310,
      "Ind": 5311,
      "Ġopposed": 5312,
      "Ġdetermined": 5313,
      "ĠDuke": 5314,
      "mosp": 5315,
      "ero": 5316,
      "ĠCr": 5317,
      "ĠChild": 5318,
      "ĠDemocratic": 5319,
      "Ġanthropology": 5320,
      "Ġdiplom": 5321,
      "Ġstories": 5322,
      "ocol": 5323,
      "Ġattended": 5324,
      "Ġpoly": 5325,
      "Ġissued": 5326,
      "AF": 5327,
      "hatt": 5328,
      "Ġactions": 5329,
      "Ġbridge": 5330,
      "ĠAssembly": 5331,
      "ĠTurkey": 5332,
      "grad": 5333,
      "ĠBible": 5334,
      "Ġimportance": 5335,
      "ĠTreat": 5336,
      "Ġseem": 5337,
      "zen": 5338,
      "Ġdra": 5339,
      "oln": 5340,
      "uration": 5341,
      "Ġunique": 5342,
      "ĠOrthodox": 5343,
      "Ġfields": 5344,
      "ĠQueen": 5345,
      "ĠOf": 5346,
      "Ġstudied": 5347,
      "Ġowned": 5348,
      "Ġwild": 5349,
      "Ġcompletely": 5350,
      "inate": 5351,
      "oday": 5352,
      "iana": 5353,
      "Ġchurches": 5354,
      "Ġpowers": 5355,
      "Ġmotor": 5356,
      "Ġstorage": 5357,
      "Ġconserv": 5358,
      "oven": 5359,
      "ĠByzant": 5360,
      "ĠHoly": 5361,
      "Ġsurrounding": 5362,
      "ĠNap": 5363,
      "Ġextra": 5364,
      "Ġdegrees": 5365,
      "Ġarchitecture": 5366,
      "98": 5367,
      "pread": 5368,
      "akistan": 5369,
      "ĠAthens": 5370,
      "Ġgovernor": 5371,
      "Ġexecutive": 5372,
      "isher": 5373,
      "Ġmut": 5374,
      "Ġreact": 5375,
      "uts": 5376,
      "Ġflow": 5377,
      "Ġinstance": 5378,
      "Ġvehicle": 5379,
      "Ġlove": 5380,
      "Ġworth": 5381,
      "Ġrevealed": 5382,
      "--": 5383,
      "haps": 5384,
      "Ġiron": 5385,
      "ĠCE": 5386,
      "Ġsituation": 5387,
      "songwriter": 5388,
      "Ġplat": 5389,
      "aped": 5390,
      "Ġfeat": 5391,
      "fficial": 5392,
      "Ġheat": 5393,
      "awa": 5394,
      "ĠAbb": 5395,
      "ĠAlfred": 5396,
      "Ġbrand": 5397,
      "Ġpurs": 5398,
      "Ġperman": 5399,
      "ĠSever": 5400,
      "ĠAbd": 5401,
      "onym": 5402,
      "Ġrefused": 5403,
      "Ġdevice": 5404,
      "igrants": 5405,
      "Ġsays": 5406,
      "roph": 5407,
      "ĠWal": 5408,
      "Ġvoice": 5409,
      "poration": 5410,
      "Ġhands": 5411,
      "Ġfailure": 5412,
      "Ġhydrogen": 5413,
      "Ġbatter": 5414,
      "ersey": 5415,
      "essor": 5416,
      "ogether": 5417,
      "Ġaccomp": 5418,
      "Ġjoint": 5419,
      "ooth": 5420,
      "á¹": 5421,
      "ĠLong": 5422,
      "Ġheight": 5423,
      "Ġrow": 5424,
      "Ġmeant": 5425,
      "igenous": 5426,
      "life": 5427,
      "ĠSultan": 5428,
      "osl": 5429,
      "Ġrates": 5430,
      "Ġimage": 5431,
      "Ġexpanded": 5432,
      "idespread": 5433,
      "Ġsuffered": 5434,
      "leg": 5435,
      "ĠAge": 5436,
      "iling": 5437,
      "ĠCP": 5438,
      "thur": 5439,
      "Ġ1967": 5440,
      "Ġdedicated": 5441,
      "ĠAmaz": 5442,
      "Ġstandards": 5443,
      "We": 5444,
      "Ġcoal": 5445,
      "Ġextensive": 5446,
      "Ġ1966": 5447,
      "Ġcommunication": 5448,
      "ĠFederal": 5449,
      "ĠNet": 5450,
      "ĠArts": 5451,
      "including": 5452,
      "Ġkingdom": 5453,
      "Ġmel": 5454,
      "Ġgranted": 5455,
      "Ġsusp": 5456,
      "Ġsand": 5457,
      "antry": 5458,
      "elsh": 5459,
      "incoln": 5460,
      "yan": 5461,
      "Ġfru": 5462,
      "ĠBecause": 5463,
      "osa": 5464,
      "Ġagg": 5465,
      "Ġbanks": 5466,
      "Ġring": 5467,
      "ĠMaria": 5468,
      "Ġvisited": 5469,
      "Ġcomputers": 5470,
      "chestra": 5471,
      "Ġinhabit": 5472,
      "onso": 5473,
      "Ġ...": 5474,
      "itzer": 5475,
      "Ġfuel": 5476,
      "Ġcru": 5477,
      "Ġdaily": 5478,
      "ĠAC": 5479,
      "ogue": 5480,
      "Ġroyal": 5481,
      "Sp": 5482,
      "chester": 5483,
      "ĠAj": 5484,
      "racy": 5485,
      "Ġparliament": 5486,
      "Ġconfir": 5487,
      "ĠNetherlands": 5488,
      "ĠWomen": 5489,
      "Ġterritories": 5490,
      "Brit": 5491,
      "itage": 5492,
      "Ġclasses": 5493,
      "Ġmunicipal": 5494,
      "Ġtank": 5495,
      "era": 5496,
      "Ġconvers": 5497,
      "ĠEconom": 5498,
      "Ġ48": 5499,
      "Ġgoals": 5500,
      "And": 5501,
      "ĠIslamic": 5502,
      "hew": 5503,
      "inger": 5504,
      "ĠLuc": 5505,
      "Ġaband": 5506,
      "ione": 5507,
      "Ġpartn": 5508,
      "ugby": 5509,
      "Ġsupply": 5510,
      "umni": 5511,
      "ĠMatt": 5512,
      "ĠDevelopment": 5513,
      "Ġ1964": 5514,
      "All": 5515,
      "Ġsought": 5516,
      "olis": 5517,
      "uty": 5518,
      "Ġseconds": 5519,
      "Ġrecording": 5520,
      "Ġglass": 5521,
      "Ġabsor": 5522,
      "ĠÂ£": 5523,
      "ĠDame": 5524,
      "ĠKong": 5525,
      "phone": 5526,
      "ipped": 5527,
      "Ġpercentage": 5528,
      "Ġnucle": 5529,
      "ĠOffice": 5530,
      "rations": 5531,
      "agh": 5532,
      "ns": 5533,
      "ĠWinter": 5534,
      "illery": 5535,
      "Ġscene": 5536,
      "Ġpeak": 5537,
      "Ġvisit": 5538,
      "Ġprotection": 5539,
      "ĠBCE": 5540,
      "RA": 5541,
      "ora": 5542,
      "Ġcorrect": 5543,
      "Ġreduce": 5544,
      "Ġconnected": 5545,
      "Ġlunar": 5546,
      "rod": 5547,
      "ĠMo": 5548,
      "ounger": 5549,
      "ĠThree": 5550,
      "Ġcollabor": 5551,
      "elligence": 5552,
      "hattan": 5553,
      "where": 5554,
      "ĠHaw": 5555,
      "works": 5556,
      "Ġhab": 5557,
      "Ġsubstant": 5558,
      "Ge": 5559,
      "ca": 5560,
      "Ġsail": 5561,
      "Ġselected": 5562,
      "From": 5563,
      "edia": 5564,
      "ĠGDP": 5565,
      "Ġunion": 5566,
      "aceae": 5567,
      "ĠConstitution": 5568,
      "Ġgeneration": 5569,
      "ĠRepublican": 5570,
      "contin": 5571,
      "Ġsettlement": 5572,
      "ĠAre": 5573,
      "ĠPen": 5574,
      "Ġconsec": 5575,
      "ĠStand": 5576,
      "Ġpowerful": 5577,
      "ĠStep": 5578,
      "ĠChristianity": 5579,
      "garia": 5580,
      "Ġmotion": 5581,
      "Ġclosely": 5582,
      "84": 5583,
      "Ġnor": 5584,
      "ds": 5585,
      "point": 5586,
      "align": 5587,
      "Ġtoward": 5588,
      "uda": 5589,
      "outheast": 5590,
      "Ġinstruments": 5591,
      "Ġstrength": 5592,
      "FA": 5593,
      "rÃ©": 5594,
      "Ġdance": 5595,
      "ĠGre": 5596,
      "ĠUp": 5597,
      "Ġchoice": 5598,
      "Ġaudience": 5599,
      "vis": 5600,
      "Ã£": 5601,
      "ĠCamer": 5602,
      "Ġwrites": 5603,
      "Ġlands": 5604,
      "Ġattempts": 5605,
      "Ġcaptured": 5606,
      "Ġapplication": 5607,
      "Ġauthors": 5608,
      "Ġsubst": 5609,
      "ĠConstant": 5610,
      "inners": 5611,
      "Ġsolo": 5612,
      "SM": 5613,
      "gu": 5614,
      "Ġwidespread": 5615,
      "Ġhun": 5616,
      "Ġnit": 5617,
      "rence": 5618,
      "ĠHealth": 5619,
      "enna": 5620,
      "Ġconducted": 5621,
      "ĠJesus": 5622,
      "ĠAch": 5623,
      "Ġrein": 5624,
      "Ġbear": 5625,
      "ĠJon": 5626,
      "Ġchlor": 5627,
      "Mus": 5628,
      "Ġcorn": 5629,
      "ĠHuman": 5630,
      "Ġvon": 5631,
      "ogy": 5632,
      "ĠArk": 5633,
      "anes": 5634,
      "Ġteaching": 5635,
      "Ġminim": 5636,
      "Ġtowns": 5637,
      "Ġliqu": 5638,
      "osaur": 5639,
      "Ġ1965": 5640,
      "Ġpractices": 5641,
      "ĠCross": 5642,
      "ĠMem": 5643,
      "under": 5644,
      "Ġgets": 5645,
      "ĠHot": 5646,
      "ĠRod": 5647,
      "resh": 5648,
      "Ġprojects": 5649,
      "inus": 5650,
      "Ġbapt": 5651,
      "ĠYoung": 5652,
      "Ġextrem": 5653,
      "Ġholds": 5654,
      "Ġfighting": 5655,
      "ĠAnglican": 5656,
      "ĠTri": 5657,
      "ĠFlor": 5658,
      "ĠCountry": 5659,
      "miss": 5660,
      "struction": 5661,
      "ĠModern": 5662,
      "ĠGram": 5663,
      "Ġsolution": 5664,
      "Ġdevices": 5665,
      "Ġhypot": 5666,
      "heim": 5667,
      "ali": 5668,
      "Ġfixed": 5669,
      "ĠRel": 5670,
      "ĠManhattan": 5671,
      "Ġcombat": 5672,
      "Ġsilver": 5673,
      "Ġtherm": 5674,
      "Ġfit": 5675,
      "Ġtow": 5676,
      "Ġ1944": 5677,
      "umber": 5678,
      "ĠLabor": 5679,
      "ounded": 5680,
      "ĠArist": 5681,
      "book": 5682,
      "Ġsemi": 5683,
      "Ġacquired": 5684,
      "ĠBak": 5685,
      "ĠMong": 5686,
      "agen": 5687,
      "ĠAthen": 5688,
      "ropolitan": 5689,
      "Ġauthorities": 5690,
      "Ġdamage": 5691,
      "Ġreasons": 5692,
      "ĠKenn": 5693,
      "Ġabol": 5694,
      "ropri": 5695,
      "roduction": 5696,
      "comm": 5697,
      "Ġopportun": 5698,
      "76": 5699,
      "Ġtall": 5700,
      "unction": 5701,
      "Ġcausing": 5702,
      "ĠBaseball": 5703,
      "Ġemperor": 5704,
      "Ġalongside": 5705,
      "Ġsuggests": 5706,
      "Ġtemperatures": 5707,
      "ST": 5708,
      "Ġtried": 5709,
      "Ġtourn": 5710,
      "ĠAlaska": 5711,
      "Ġteach": 5712,
      "azz": 5713,
      "ĠLewis": 5714,
      "crib": 5715,
      "inals": 5716,
      "icts": 5717,
      "ĠSpecial": 5718,
      "Ġago": 5719,
      "Ġconstructed": 5720,
      "from": 5721,
      "ga": 5722,
      "also": 5723,
      "ading": 5724,
      "ĠFar": 5725,
      "ĠHeb": 5726,
      "ĠColor": 5727,
      "Ġnearby": 5728,
      "Ġsequence": 5729,
      "ĠPope": 5730,
      "Ġchosen": 5731,
      "ĠStat": 5732,
      "Ġunderstanding": 5733,
      "Ġbackground": 5734,
      "Ġdemand": 5735,
      "ĠSerb": 5736,
      "ĠMing": 5737,
      "Ġscale": 5738,
      "Ġarchae": 5739,
      "Ġcauses": 5740,
      "ĠChampionship": 5741,
      "Ġtheories": 5742,
      "ĠTour": 5743,
      "ĠSab": 5744,
      "ĠPakistan": 5745,
      "ĠFurther": 5746,
      "ĠDi": 5747,
      "Ġproviding": 5748,
      "Ġparticles": 5749,
      "Although": 5750,
      "Ġlabel": 5751,
      "Ġnick": 5752,
      "Ġreports": 5753,
      "Ġadvanced": 5754,
      "Ġdeliver": 5755,
      "Man": 5756,
      "onian": 5757,
      "uther": 5758,
      "ampion": 5759,
      "Ġproport": 5760,
      "Ġparalle": 5761,
      "Ġruled": 5762,
      "ois": 5763,
      "icon": 5764,
      "ĠFox": 5765,
      "Ġ1962": 5766,
      "Ġslightly": 5767,
      "ĠLincoln": 5768,
      "Ġproced": 5769,
      "Ġseek": 5770,
      "Ġbegin": 5771,
      "Ġrailway": 5772,
      "Ġcas": 5773,
      "Ġbad": 5774,
      "Ġweak": 5775,
      "Ġcrime": 5776,
      "Ġmanaged": 5777,
      "Ġsomething": 5778,
      "Ġsettled": 5779,
      "Ġbill": 5780,
      "Ġbeaut": 5781,
      "ounder": 5782,
      "ĠOcean": 5783,
      "Ġportion": 5784,
      "87": 5785,
      "equ": 5786,
      "Åį": 5787,
      "Ġwants": 5788,
      "agle": 5789,
      "ĠNaz": 5790,
      "ĠAtari": 5791,
      "Ġheadqu": 5792,
      "52": 5793,
      "Sc": 5794,
      "Ġfrag": 5795,
      "Ġfelt": 5796,
      "ĠDis": 5797,
      "Ġseats": 5798,
      "rapy": 5799,
      "ĠValley": 5800,
      "gn": 5801,
      "Ġbul": 5802,
      "Ġunknown": 5803,
      "ĠSwedish": 5804,
      "ĠTechnology": 5805,
      "vant": 5806,
      "Ġgun": 5807,
      "ĠPop": 5808,
      "ĠOs": 5809,
      "Ġfeel": 5810,
      "ĠNotre": 5811,
      "Ġorders": 5812,
      "66": 5813,
      "nce": 5814,
      "stream": 5815,
      "ĠHong": 5816,
      "Ġatmosp": 5817,
      "ologies": 5818,
      "ĠEngine": 5819,
      "Ġbinary": 5820,
      "ĠDec": 5821,
      "Ġproved": 5822,
      "abet": 5823,
      "Ġrelative": 5824,
      "orning": 5825,
      "ĠÅ": 5826,
      "state": 5827,
      "Ġalone": 5828,
      "Ġphase": 5829,
      "Ġsnow": 5830,
      "uscript": 5831,
      "ĠNAS": 5832,
      "anging": 5833,
      "Ġcampus": 5834,
      "Ġestablishments": 5835,
      "Ġmedicine": 5836,
      "rates": 5837,
      "aron": 5838,
      "Ġarts": 5839,
      "IA": 5840,
      "OM": 5841,
      "Ã±": 5842,
      "Ġalk": 5843,
      "ĠVen": 5844,
      "ĠShah": 5845,
      "Ġcritics": 5846,
      "ĠExp": 5847,
      "ati": 5848,
      "Ġwinner": 5849,
      "Ġhus": 5850,
      "SP": 5851,
      "Ġ#": 5852,
      "ĠJones": 5853,
      "ĠConserv": 5854,
      "ny": 5855,
      "Ġpict": 5856,
      "olar": 5857,
      "Ġhere": 5858,
      "ĠPoland": 5859,
      "ĠBillboard": 5860,
      "illy": 5861,
      "Ġdeploy": 5862,
      "Ġultimately": 5863,
      "ĠRuth": 5864,
      "itionally": 5865,
      "Ġcopy": 5866,
      "Ġtranslation": 5867,
      "Ġhonor": 5868,
      "Ġphenomen": 5869,
      "Ġplatform": 5870,
      "Ġtru": 5871,
      "ĠPersian": 5872,
      "Ġheavily": 5873,
      "Ġantibiotics": 5874,
      "ocal": 5875,
      "Ġsurvey": 5876,
      "Col": 5877,
      "ĠPenn": 5878,
      "term": 5879,
      "ĠTibetan": 5880,
      "arus": 5881,
      "udes": 5882,
      "Ġ1963": 5883,
      "Ġdetect": 5884,
      "ĠSenate": 5885,
      "Ġequivalent": 5886,
      "ĠBus": 5887,
      "Ġcontext": 5888,
      "oples": 5889,
      "ĠJeff": 5890,
      "Ġrival": 5891,
      "Ġinfluential": 5892,
      "ĠSummer": 5893,
      "Ġtaught": 5894,
      "ĠCam": 5895,
      "elve": 5896,
      "ĠDNA": 5897,
      "ĠJay": 5898,
      "Ġpopularity": 5899,
      "unnel": 5900,
      "pan": 5901,
      "Ġsignal": 5902,
      "Ġdrum": 5903,
      "Ġdescribes": 5904,
      "ais": 5905,
      "Ġatoms": 5906,
      "arma": 5907,
      "related": 5908,
      "Ġprinciple": 5909,
      "ĠWelsh": 5910,
      "Ġven": 5911,
      "udget": 5912,
      "Ġpossibly": 5913,
      "Ġcycle": 5914,
      "ĠEll": 5915,
      "inson": 5916,
      "Ġpolitics": 5917,
      "Ġorganized": 5918,
      "Ġtitles": 5919,
      "Ġtrip": 5920,
      "Ġliterary": 5921,
      "Ġdoub": 5922,
      "Ġcreating": 5923,
      "andy": 5924,
      "Ġdemonstr": 5925,
      "ĠKorea": 5926,
      "Can": 5927,
      "kh": 5928,
      "Ġpp": 5929,
      "Ġdescent": 5930,
      "Ġdeveloping": 5931,
      "Ġlanding": 5932,
      "Ġaid": 5933,
      "ĠCel": 5934,
      "Ġarmed": 5935,
      "Ġcontained": 5936,
      "Ġoperated": 5937,
      "cious": 5938,
      "Ġlingu": 5939,
      "ĠNorm": 5940,
      "Ġenj": 5941,
      "Ġidentity": 5942,
      "Ġengineer": 5943,
      "FC": 5944,
      "gest": 5945,
      "then": 5946,
      "class": 5947,
      "Ġnotably": 5948,
      "Ġformat": 5949,
      "ictions": 5950,
      "prus": 5951,
      "bal": 5952,
      "Ġconvent": 5953,
      "Ġrequires": 5954,
      "sterdam": 5955,
      "âĪĴ": 5956,
      "ĠRog": 5957,
      "Ġseg": 5958,
      "ĠProf": 5959,
      "Ġcool": 5960,
      "Ġjur": 5961,
      "Ġserving": 5962,
      "venth": 5963,
      "Ġinhabitants": 5964,
      "Ġpric": 5965,
      "ĠCD": 5966,
      "osure": 5967,
      "Ġkilling": 5968,
      "Ġwalls": 5969,
      "Ġfeaturing": 5970,
      "etary": 5971,
      "adron": 5972,
      "Ġoccasion": 5973,
      "Ġintroduction": 5974,
      "ĠGovernor": 5975,
      "1000": 5976,
      "mond": 5977,
      "ĠArm": 5978,
      "Ġacts": 5979,
      "Ġaffected": 5980,
      "Ġmaximum": 5981,
      "oons": 5982,
      "Ġce": 5983,
      "ura": 5984,
      "ĠWind": 5985,
      "ĠWood": 5986,
      "Ġspecifically": 5987,
      "Ġbrown": 5988,
      "zero": 5989,
      "ĠPhilip": 5990,
      "Ġcollected": 5991,
      "Ġpersonnel": 5992,
      "Ġconcerns": 5993,
      "present": 5994,
      "Ġbat": 5995,
      "Ġbishop": 5996,
      "Ġlives": 5997,
      "Ġportray": 5998,
      "ĠSeveral": 5999,
      "uing": 6000,
      "organ": 6001,
      "Ġdiam": 6002,
      "abama": 6003,
      "Ġspeakers": 6004,
      "iate": 6005,
      "room": 6006,
      "ĠRay": 6007,
      "ĠGal": 6008,
      "Ġcoming": 6009,
      "Ġselect": 6010,
      "ĠCharl": 6011,
      "cell": 6012,
      "ancing": 6013,
      "ĠGi": 6014,
      "ĠUl": 6015,
      "1990": 6016,
      "Ġmaintain": 6017,
      "ceived": 6018,
      "Ġchannel": 6019,
      "obe": 6020,
      "ophical": 6021,
      "Ã¼r": 6022,
      "Ġcomposition": 6023,
      "AR": 6024,
      "dis": 6025,
      "ims": 6026,
      "Ġpolic": 6027,
      "Ġviews": 6028,
      "Therefore": 6029,
      "Ġincreasingly": 6030,
      "ĠColombia": 6031,
      "Ã£o": 6032,
      "Ġpure": 6033,
      "Ġitems": 6034,
      "izz": 6035,
      "Ġpublication": 6036,
      "Ġtranslated": 6037,
      "ĠDaniel": 6038,
      "Ġobtained": 6039,
      "oir": 6040,
      "avia": 6041,
      "ĠĊĠ": 6042,
      "Ġwhereas": 6043,
      "Ġuniversities": 6044,
      "Ġmagnitude": 6045,
      "Ġbodies": 6046,
      "Ġempire": 6047,
      "Film": 6048,
      "Ġsun": 6049,
      "Ġselling": 6050,
      "omew": 6051,
      "ĠPost": 6052,
      "Ġprint": 6053,
      "Ġweapons": 6054,
      "hus": 6055,
      "Ġhop": 6056,
      "Ġeasily": 6057,
      "ellect": 6058,
      "Ġkm": 6059,
      "rance": 6060,
      "ĠAlb": 6061,
      "Ġuseful": 6062,
      "Ġcontinues": 6063,
      "Ġ1948": 6064,
      "Ġcourts": 6065,
      "ĠJr": 6066,
      "Ġshell": 6067,
      "ĠChristians": 6068,
      "ĠEarly": 6069,
      "ĠSupreme": 6070,
      "Ġhero": 6071,
      "ocide": 6072,
      "Ġuniform": 6073,
      "ibl": 6074,
      "Ġoutput": 6075,
      "Ġnewly": 6076,
      "eters": 6077,
      "adian": 6078,
      "ĠBulgaria": 6079,
      "89": 6080,
      "las": 6081,
      "tes": 6082,
      "ibli": 6083,
      "Ġofficers": 6084,
      "III": 6085,
      "Ġencoura": 6086,
      "Ġcredit": 6087,
      "Ġawards": 6088,
      "Ġonto": 6089,
      "Ġcounty": 6090,
      "Ġdefense": 6091,
      "Ġcircum": 6092,
      "usalem": 6093,
      "rehens": 6094,
      "unct": 6095,
      "ĠFe": 6096,
      "iful": 6097,
      "Ġactual": 6098,
      "Ġentirely": 6099,
      "ivals": 6100,
      "Ġchair": 6101,
      "achus": 6102,
      "Ġboy": 6103,
      "ĠClin": 6104,
      "ao": 6105,
      "ĠCas": 6106,
      "ĠBapt": 6107,
      "ĠMir": 6108,
      "ĠRh": 6109,
      "Ġdisorder": 6110,
      "Ġmatches": 6111,
      "rec": 6112,
      "ĠAI": 6113,
      "Ġstable": 6114,
      "Ġspring": 6115,
      "ĠPrin": 6116,
      "Ġthousands": 6117,
      "stone": 6118,
      "amic": 6119,
      "ĠMP": 6120,
      "ĠMicro": 6121,
      "ĠInternet": 6122,
      "ĠStadium": 6123,
      "Ġtheme": 6124,
      "ĠForces": 6125,
      "ĠCoast": 6126,
      "Ġmanufactur": 6127,
      "ĠCuba": 6128,
      "Ġtwenty": 6129,
      "hire": 6130,
      "rator": 6131,
      "Ġoun": 6132,
      "Ġsle": 6133,
      "ricts": 6134,
      "ĠAustin": 6135,
      "240": 6136,
      "ĠHon": 6137,
      "ĠDer": 6138,
      "Ġcalls": 6139,
      "Ġmedium": 6140,
      "Ġadvance": 6141,
      "Ġinvestment": 6142,
      "Des": 6143,
      "mm": 6144,
      "Ġfair": 6145,
      "ocracy": 6146,
      "Ġshape": 6147,
      "Ġaccur": 6148,
      "Ġassociation": 6149,
      "Ġadministrative": 6150,
      "Ġveget": 6151,
      "Ġcensus": 6152,
      "Ġlat": 6153,
      "Ġlibrary": 6154,
      "United": 6155,
      "ĠMilitary": 6156,
      "92": 6157,
      "Ġment": 6158,
      "2006": 6159,
      "Ġdepos": 6160,
      "ĠWilliams": 6161,
      "Ġrejected": 6162,
      "Ġpairs": 6163,
      "Ġnations": 6164,
      "Ġstock": 6165,
      "Ġcontributed": 6166,
      "His": 6167,
      "lers": 6168,
      "Ä«": 6169,
      "itic": 6170,
      "aming": 6171,
      "agan": 6172,
      "ĠJournal": 6173,
      "Ġleadership": 6174,
      "Ġoppon": 6175,
      "Ġbottom": 6176,
      "ĠForest": 6177,
      "ĠProgram": 6178,
      "instein": 6179,
      "Ġthir": 6180,
      "etts": 6181,
      "emic": 6182,
      "Ġconcluded": 6183,
      "Ġsubt": 6184,
      "Ġenemy": 6185,
      "ĠSecretary": 6186,
      "ĠTre": 6187,
      "ĠOh": 6188,
      "Ġsingles": 6189,
      "Ġadvantage": 6190,
      "Ġswe": 6191,
      "ĠMen": 6192,
      "Ġrespond": 6193,
      "Ġscientists": 6194,
      "83": 6195,
      "org": 6196,
      "ĠEth": 6197,
      "Ġyounger": 6198,
      "Ġdifferences": 6199,
      "Ġprincipal": 6200,
      "oys": 6201,
      "Ġfashion": 6202,
      "amber": 6203,
      "Ġisol": 6204,
      "Ġdepending": 6205,
      "ĠPlay": 6206,
      "Ġpossess": 6207,
      "Ġhosted": 6208,
      "Ġburied": 6209,
      "ibbean": 6210,
      "ĠHebrew": 6211,
      "Ġdecline": 6212,
      "Ġepisodes": 6213,
      "ĠNobel": 6214,
      "wich": 6215,
      "Ġhospital": 6216,
      "utation": 6217,
      "agement": 6218,
      "Ġboxes": 6219,
      "Ġratio": 6220,
      "Ġspiritual": 6221,
      "ienced": 6222,
      "Ġcab": 6223,
      "abeth": 6224,
      "Ġrob": 6225,
      "ĠBoard": 6226,
      "Ġtechnique": 6227,
      "Ġtypical": 6228,
      "Ġcopies": 6229,
      "Ġsteel": 6230,
      "SR": 6231,
      "ophers": 6232,
      "Ġchrom": 6233,
      "ĠBowl": 6234,
      "ocated": 6235,
      "Ġusers": 6236,
      "ĠArthur": 6237,
      "Ġrelation": 6238,
      "Ġformula": 6239,
      "ĠManchester": 6240,
      "Ġdemonst": 6241,
      "set": 6242,
      "Ġfans": 6243,
      "ĠEducation": 6244,
      "Ġexerc": 6245,
      "Ġspeak": 6246,
      "Ġfactor": 6247,
      "Ġcycl": 6248,
      "ĠProtest": 6249,
      "Ġimproved": 6250,
      "Ġhusband": 6251,
      "Ġthrow": 6252,
      "Ġvotes": 6253,
      "ika": 6254,
      "Ġperformances": 6255,
      "Ġ1958": 6256,
      "aux": 6257,
      "ĠSteve": 6258,
      "Ġcookies": 6259,
      "cular": 6260,
      "mann": 6261,
      "Ġcosm": 6262,
      "Ġbron": 6263,
      "Ġbond": 6264,
      "otal": 6265,
      "aine": 6266,
      "ource": 6267,
      "Ġ37": 6268,
      "ĠAdam": 6269,
      "unications": 6270,
      "Ġexpression": 6271,
      "Ġnarrow": 6272,
      "ographer": 6273,
      "non": 6274,
      "ador": 6275,
      "Ġforward": 6276,
      "Ġphr": 6277,
      "%)": 6278,
      "IV": 6279,
      "een": 6280,
      "edition": 6281,
      "Ġdry": 6282,
      "ĠSem": 6283,
      "ĠLy": 6284,
      "2007": 6285,
      "Ġcurren": 6286,
      "Ġexperiment": 6287,
      "ĠCyprus": 6288,
      "Ġign": 6289,
      "erve": 6290,
      "atal": 6291,
      "Ġdang": 6292,
      "lets": 6293,
      "Ġstre": 6294,
      "ĠFree": 6295,
      "izon": 6296,
      "Ġsetting": 6297,
      "Ġcrim": 6298,
      "Ġexisting": 6299,
      "Ġchalleng": 6300,
      ".[": 6301,
      "Ġfer": 6302,
      "Ġ33": 6303,
      "rics": 6304,
      "Ġmathematic": 6305,
      "To": 6306,
      "ima": 6307,
      "Ġtraditions": 6308,
      "Ġzone": 6309,
      "While": 6310,
      "Ġcontrolled": 6311,
      "ĠSquare": 6312,
      "Ġconfirmed": 6313,
      "Ġhall": 6314,
      "ĠTal": 6315,
      "ques": 6316,
      "Ġtraffic": 6317,
      "Ġdensity": 6318,
      "ĠAT": 6319,
      "ĠChief": 6320,
      "Ġarbit": 6321,
      "Ġgenetic": 6322,
      "Ġemployed": 6323,
      "Ġhousing": 6324,
      "Aust": 6325,
      "active": 6326,
      "Ġ64": 6327,
      "othing": 6328,
      "ĠIndones": 6329,
      "ĠAmsterdam": 6330,
      "Ġhousehold": 6331,
      "ĠBatman": 6332,
      "cers": 6333,
      "iser": 6334,
      "Ġfiction": 6335,
      "ĠUs": 6336,
      "Ġbroke": 6337,
      "aeus": 6338,
      "Ġstrateg": 6339,
      "Ġpiece": 6340,
      "Ġcolonial": 6341,
      "burgh": 6342,
      "Most": 6343,
      "Ġaer": 6344,
      "Ġmaster": 6345,
      "Ġalter": 6346,
      "Ġyield": 6347,
      "Ġacting": 6348,
      "Ġdecade": 6349,
      "Ġ1947": 6350,
      "ĠKorean": 6351,
      "vest": 6352,
      "amental": 6353,
      "Ġstream": 6354,
      "Ġpainter": 6355,
      "Ġlearning": 6356,
      "Ġfleet": 6357,
      "British": 6358,
      "Ġaccounts": 6359,
      "Ġthousand": 6360,
      "ĠFoundation": 6361,
      "hat": 6362,
      "Ġ;": 6363,
      "ctic": 6364,
      "Ġyellow": 6365,
      "Ġpeoples": 6366,
      "ĠIndepend": 6367,
      "ĠColorado": 6368,
      "una": 6369,
      "Ġstone": 6370,
      "ĠFA": 6371,
      "ĠCatal": 6372,
      "ĠCommunity": 6373,
      "Ġliquid": 6374,
      "alty": 6375,
      "omial": 6376,
      "ĠCons": 6377,
      "pha": 6378,
      "ographical": 6379,
      "Ġmarkets": 6380,
      "Ġoccupied": 6381,
      "ĠConfuc": 6382,
      "Ġwant": 6383,
      "ĠLittle": 6384,
      "antic": 6385,
      "Ġbin": 6386,
      "ĠAz": 6387,
      "ĠMontana": 6388,
      "uous": 6389,
      "cts": 6390,
      "Ġalumni": 6391,
      "ante": 6392,
      "Ġrestaur": 6393,
      "Ġconcrete": 6394,
      "Ġsixth": 6395,
      "Ġgoods": 6396,
      "ĠPalace": 6397,
      "97": 6398,
      "ĠGood": 6399,
      "Ġschem": 6400,
      "Ġassault": 6401,
      "Ġsolid": 6402,
      "ĠJerusalem": 6403,
      "List": 6404,
      "kes": 6405,
      "Ġfr": 6406,
      "Ġly": 6407,
      "ĠBir": 6408,
      "ĠWay": 6409,
      "ĠUk": 6410,
      "Ġarms": 6411,
      "Ġgoes": 6412,
      "Christ": 6413,
      "Ġcomponents": 6414,
      "inema": 6415,
      "his": 6416,
      "iat": 6417,
      "ĠTheatre": 6418,
      "Ġcomedy": 6419,
      "Ġunable": 6420,
      "Ġtechnical": 6421,
      "Thus": 6422,
      "Ġconverted": 6423,
      "Ġdrop": 6424,
      "ĠEst": 6425,
      "Ġabsol": 6426,
      "Ġdropped": 6427,
      "Ġsucceeded": 6428,
      "Ġwarm": 6429,
      "Ġexternal": 6430,
      "ĠAlc": 6431,
      "ĠAlabama": 6432,
      "Ġmanuscript": 6433,
      "Ġfacilities": 6434,
      "Ġinstitution": 6435,
      "ĠAtlanta": 6436,
      "wana": 6437,
      "Ġtal": 6438,
      "Ġ1000": 6439,
      "Ġusage": 6440,
      "Ġjudges": 6441,
      "Ġenjoy": 6442,
      "Ġastronaut": 6443,
      "94": 6444,
      "Ġbudget": 6445,
      "ĠMike": 6446,
      "ipel": 6447,
      "apse": 6448,
      "Ġweigh": 6449,
      "fully": 6450,
      "da": 6451,
      "ĠÄ": 6452,
      "inth": 6453,
      "inction": 6454,
      "ĠMond": 6455,
      "ĠDick": 6456,
      "Ġarc": 6457,
      "Ġmarbles": 6458,
      "Ġbegins": 6459,
      "ĠEgyptian": 6460,
      "63": 6461,
      "68": 6462,
      "Ġjourn": 6463,
      "cules": 6464,
      "Ġfocused": 6465,
      "ĠQueens": 6466,
      "achusetts": 6467,
      "wing": 6468,
      "oly": 6469,
      "Ġisot": 6470,
      "andom": 6471,
      "Ġclin": 6472,
      "ĠArgent": 6473,
      "Ġ1943": 6474,
      "ĠBrazilian": 6475,
      "Ġsafety": 6476,
      "ĠTaj": 6477,
      "ĠSat": 6478,
      "ĠNative": 6479,
      "Ġprepar": 6480,
      "ronic": 6481,
      "Ġalleged": 6482,
      "ĠVietnam": 6483,
      "anth": 6484,
      "arks": 6485,
      "ifications": 6486,
      "Ġquite": 6487,
      "Ġapart": 6488,
      "58": 6489,
      "Ġansw": 6490,
      "ĠForm": 6491,
      "ishment": 6492,
      "Ġchap": 6493,
      "Ġuser": 6494,
      "ranean": 6495,
      "Ġsevere": 6496,
      "Ġquantum": 6497,
      "Com": 6498,
      "ĠMaced": 6499,
      "ĠEs": 6500,
      "ĠStan": 6501,
      "ĠEnter": 6502,
      "Ġdefend": 6503,
      "Ġairport": 6504,
      "ĠProject": 6505,
      "ĠCaribbean": 6506,
      "Ġcheck": 6507,
      "Ġnegot": 6508,
      "Ġaspects": 6509,
      "Ġalgorithm": 6510,
      "Ġanarch": 6511,
      "Ġstring": 6512,
      "Ġvent": 6513,
      "Ġexam": 6514,
      "Ġregarding": 6515,
      "Ġmaintained": 6516,
      "Ġpremi": 6517,
      "Ġattributed": 6518,
      "93": 6519,
      "lades": 6520,
      "Ġpage": 6521,
      "Ġpopulations": 6522,
      "Ġinvasion": 6523,
      "Ġmedieval": 6524,
      "ĠAustria": 6525,
      "gr": 6526,
      "ĠTur": 6527,
      "ĠSpr": 6528,
      "Ġspons": 6529,
      "Ġminute": 6530,
      "Ġinnov": 6531,
      "ĠBosnia": 6532,
      "OL": 6533,
      "wealth": 6534,
      "Ġ65": 6535,
      "Ġindicate": 6536,
      "Ġconsisting": 6537,
      "Ġenvironmental": 6538,
      "Ġpurchased": 6539,
      "Ġbacteria": 6540,
      "eless": 6541,
      "ĠLink": 6542,
      "Ġdiscip": 6543,
      "Ġdebt": 6544,
      "ĠSweden": 6545,
      "ĠTreaty": 6546,
      "resents": 6547,
      "Ġchain": 6548,
      "ovak": 6549,
      "Ġsimpl": 6550,
      "Ġbiological": 6551,
      "Ġprotests": 6552,
      "wick": 6553,
      "Ġthink": 6554,
      "ĠBru": 6555,
      "uten": 6556,
      "Ġvac": 6557,
      "ĠAmong": 6558,
      "Ġ1942": 6559,
      "Ġceremony": 6560,
      "ĠByzantine": 6561,
      "ections": 6562,
      "adel": 6563,
      "ranches": 6564,
      "indu": 6565,
      "Ġsale": 6566,
      "Ġfirm": 6567,
      "illing": 6568,
      "bell": 6569,
      "hour": 6570,
      "atically": 6571,
      "ĠBon": 6572,
      "ĠMod": 6573,
      "athan": 6574,
      "Ġgallons": 6575,
      "Ġroughly": 6576,
      "ĠStephen": 6577,
      "ĠBeng": 6578,
      "urance": 6579,
      "Ġseems": 6580,
      "Ġ600": 6581,
      "Ġ1961": 6582,
      "Ġrenamed": 6583,
      "Ġmathematics": 6584,
      "Ġagriculture": 6585,
      "Trans": 6586,
      "garian": 6587,
      "eda": 6588,
      "ĠSpect": 6589,
      "ĠMov": 6590,
      "asts": 6591,
      "Ġspends": 6592,
      "ĠAustrian": 6593,
      "bar": 6594,
      "lyn": 6595,
      "ĠKen": 6596,
      "neg": 6597,
      "Ġinvolving": 6598,
      "anas": 6599,
      "Ġstreet": 6600,
      "enses": 6601,
      "Ġproducing": 6602,
      "ĠMinistry": 6603,
      "Ġpromoted": 6604,
      "Ġconcentration": 6605,
      "PS": 6606,
      "ĠIV": 6607,
      "Ġ38": 6608,
      "2005": 6609,
      "ymph": 6610,
      "ĠEliz": 6611,
      "Ġarrang": 6612,
      "ĠBuff": 6613,
      "ĠGall": 6614,
      "ĠEven": 6615,
      "Ġotherwise": 6616,
      "Ġregist": 6617,
      "issance": 6618,
      "theless": 6619,
      "Ġ1959": 6620,
      "Ġrevolution": 6621,
      "ĠVictoria": 6622,
      "ba": 6623,
      "ti": 6624,
      "tra": 6625,
      "itled": 6626,
      "ĠField": 6627,
      "ĠNFL": 6628,
      "Ġvess": 6629,
      "ĠEnd": 6630,
      "def": 6631,
      "Ġfewer": 6632,
      "Ġdominant": 6633,
      "ĠVirginia": 6634,
      "king": 6635,
      "western": 6636,
      "inations": 6637,
      "Ġsty": 6638,
      "Ġstress": 6639,
      "aints": 6640,
      "Ġcancer": 6641,
      "Ġexperienced": 6642,
      "ĠPhilipp": 6643,
      "Ġagricultural": 6644,
      "Ġconnection": 6645,
      "AD": 6646,
      "Car": 6647,
      "tical": 6648,
      "ĠAal": 6649,
      "Ġ160": 6650,
      "Ġsufficient": 6651,
      "Ġhardware": 6652,
      "Ġemerged": 6653,
      "ĠGolden": 6654,
      "ned": 6655,
      "vi": 6656,
      "stood": 6657,
      "ĠFrid": 6658,
      "Ġcompil": 6659,
      "Ġsympt": 6660,
      "ĠCorporation": 6661,
      "Ġgeomet": 6662,
      "'.": 6663,
      "ja": 6664,
      "Ġrivers": 6665,
      "Ġperhaps": 6666,
      "Ġcoord": 6667,
      "Ġ1946": 6668,
      "Ġimprove": 6669,
      "Ġbronze": 6670,
      "250": 6671,
      "no": 6672,
      "ÅŁ": 6673,
      "ĠAP": 6674,
      "Ġcommander": 6675,
      "Ġacids": 6676,
      "Ġtrial": 6677,
      "ĠCorps": 6678,
      "Ġcharged": 6679,
      "Ġtheorem": 6680,
      "Ġpermanent": 6681,
      "77": 6682,
      "CC": 6683,
      "aug": 6684,
      "iography": 6685,
      "town": 6686,
      "emale": 6687,
      "ova": 6688,
      "Ġconscious": 6689,
      "Ġincreases": 6690,
      "Ġnormally": 6691,
      "ĠCroatian": 6692,
      "lan": 6693,
      "Ġsave": 6694,
      "unc": 6695,
      "ĠWhich": 6696,
      "Ġassigned": 6697,
      "Ġrepresents": 6698,
      "Ġstatement": 6699,
      "Ġdeclined": 6700,
      "Ġphilosopher": 6701,
      "Ġasser": 6702,
      "ĠDie": 6703,
      "Ġpropos": 6704,
      "Ġjudge": 6705,
      "Ġcouple": 6706,
      "ĠGeorgia": 6707,
      "ĠNASA": 6708,
      "eing": 6709,
      "Ġfear": 6710,
      "ĠBridge": 6711,
      "Ġ34": 6712,
      "iterranean": 6713,
      "Ġvocal": 6714,
      "Ġsomew": 6715,
      "Ġwaters": 6716,
      "Ġprogress": 6717,
      "Ġdesignated": 6718,
      "Ġhistoric": 6719,
      "Ġgirls": 6720,
      "Ġparallel": 6721,
      "tar": 6722,
      "isd": 6723,
      "Ġgain": 6724,
      "raq": 6725,
      "Ġcrop": 6726,
      "âĢĿ": 6727,
      "Ġflat": 6728,
      "Ġfeed": 6729,
      "Ġartillery": 6730,
      "Ġclassified": 6731,
      "Ġ1955": 6732,
      "Ġseparated": 6733,
      "62": 6734,
      "ko": 6735,
      "Ġcore": 6736,
      "Ġbip": 6737,
      "ĠABC": 6738,
      "Ġ42": 6739,
      "Ġfinish": 6740,
      "Ġpoem": 6741,
      "Ġmulti": 6742,
      "rastructure": 6743,
      "Ġbattles": 6744,
      "Europe": 6745,
      "Many": 6746,
      "Ġtail": 6747,
      "Ġsons": 6748,
      "ĠAges": 6749,
      "Ġnort": 6750,
      "ĠJersey": 6751,
      "ropical": 6752,
      "Ġexception": 6753,
      "61": 6754,
      "Ġtons": 6755,
      "Ġcogn": 6756,
      "Ġoffers": 6757,
      "ĠStudies": 6758,
      "ĠMassachusetts": 6759,
      "ĠBronx": 6760,
      "Ġatomic": 6761,
      "Ġmouth": 6762,
      "stead": 6763,
      "ĠCape": 6764,
      "Ġvast": 6765,
      "ĠAnth": 6766,
      "Ġresc": 6767,
      "ĠCongo": 6768,
      "World": 6769,
      "Ġhair": 6770,
      "Ġlosing": 6771,
      "irts": 6772,
      "ĠHor": 6773,
      "Ġabst": 6774,
      "Ġquestions": 6775,
      "Ġcontinuous": 6776,
      "Ġpurposes": 6777,
      "orf": 6778,
      "Ġgar": 6779,
      "ĠThen": 6780,
      "ĠLiberal": 6781,
      "Ġcandidate": 6782,
      "ibliography": 6783,
      "ĠÐ": 6784,
      "ila": 6785,
      "aven": 6786,
      "Ġsust": 6787,
      "iox": 6788,
      "Ġsupporting": 6789,
      "ĠCentre": 6790,
      "Ġholding": 6791,
      "Ġtribes": 6792,
      "Ġviolence": 6793,
      "79": 6794,
      "vard": 6795,
      "Ġtox": 6796,
      "ĠIll": 6797,
      "tery": 6798,
      "ager": 6799,
      "sey": 6800,
      "Ġcolony": 6801,
      "Ġretired": 6802,
      "ĠMexican": 6803,
      "bi": 6804,
      "Ġdates": 6805,
      "Ġunp": 6806,
      "owned": 6807,
      "Ġequation": 6808,
      "Ġpresidential": 6809,
      "ĠSel": 6810,
      "Ġcorpor": 6811,
      "ĠBelarus": 6812,
      "General": 6813,
      "ĠFlorida": 6814,
      "Af": 6815,
      "onom": 6816,
      "Ġbears": 6817,
      "ĠRam": 6818,
      "agu": 6819,
      "Ġtemple": 6820,
      "ĠAnglo": 6821,
      "ĠTerrit": 6822,
      "Ġcomparison": 6823,
      "ĠArmenia": 6824,
      "Ġinterpretation": 6825,
      "51": 6826,
      "US": 6827,
      "Äĩ": 6828,
      "asy": 6829,
      "establ": 6830,
      "Ġplane": 6831,
      "Ġextent": 6832,
      "Ġdriver": 6833,
      "Ġmissions": 6834,
      "Ġounces": 6835,
      "ishops": 6836,
      "Ġgenocide": 6837,
      "Ġmeters": 6838,
      "ylvan": 6839,
      "Ġclean": 6840,
      "Ġguns": 6841,
      "ĠDal": 6842,
      "Ġsup": 6843,
      "2010": 6844,
      "insula": 6845,
      "ĠBrook": 6846,
      "Ġprotein": 6847,
      "Ġcoastal": 6848,
      "ĠBelgium": 6849,
      "Ġrepeated": 6850,
      "come": 6851,
      "Ġwave": 6852,
      "Ġdraft": 6853,
      "ighth": 6854,
      "Ġextreme": 6855,
      "2008": 6856,
      "ĠGuard": 6857,
      "Ġresearc": 6858,
      "Ġtesting": 6859,
      "clusion": 6860,
      "gian": 6861,
      "ĠColl": 6862,
      "Ġexists": 6863,
      "Ġunf": 6864,
      "Ġpreced": 6865,
      "Ġ1939": 6866,
      "Ġlowest": 6867,
      "Ġzero": 6868,
      "inally": 6869,
      "inding": 6870,
      "Ġskin": 6871,
      "Ġdrugs": 6872,
      "Ġsan": 6873,
      "uses": 6874,
      "avig": 6875,
      "Ġrich": 6876,
      "Ġtransition": 6877,
      "Ġentertain": 6878,
      "Ġ1957": 6879,
      "Ġradiation": 6880,
      "Ġcalc": 6881,
      "Ġconstitu": 6882,
      "Ġcolonies": 6883,
      "Ġcategory": 6884,
      "Ġsenior": 6885,
      "called": 6886,
      "ker": 6887,
      "Ġroles": 6888,
      "ĠShow": 6889,
      "Ġapproved": 6890,
      "Ġformerly": 6891,
      "ĠHollywood": 6892,
      "Ġlies": 6893,
      "Ġthr": 6894,
      "ĠBod": 6895,
      "eta": 6896,
      "oster": 6897,
      "rane": 6898,
      "Ġintellect": 6899,
      "Ġcultures": 6900,
      "Ġpatients": 6901,
      "ĠJustice": 6902,
      "Ġaccompan": 6903,
      "Ġcold": 6904,
      "Ġcrown": 6905,
      "arat": 6906,
      "ĠAS": 6907,
      "seud": 6908,
      "ructions": 6909,
      "ĠAli": 6910,
      "Ġblocks": 6911,
      "ocking": 6912,
      "Ġswim": 6913,
      "Ġballs": 6914,
      "Ġbalance": 6915,
      "low": 6916,
      "Ġpig": 6917,
      "Ġalign": 6918,
      "iph": 6919,
      "Ġdoing": 6920,
      "hemical": 6921,
      "ĠCommand": 6922,
      "Ġgreatly": 6923,
      "mers": 6924,
      "Ġcod": 6925,
      "Ġmorning": 6926,
      "uled": 6927,
      "ĠHal": 6928,
      "pping": 6929,
      "Ġmodified": 6930,
      "Ġending": 6931,
      "ĠShort": 6932,
      "Ġeditor": 6933,
      "former": 6934,
      "Ġovers": 6935,
      "stan": 6936,
      "olt": 6937,
      "ĠJoe": 6938,
      "phal": 6939,
      "ĠChristmas": 6940,
      "Ġoxid": 6941,
      "know": 6942,
      "ship": 6943,
      "Ġdim": 6944,
      "ĠMarg": 6945,
      "Ġalumin": 6946,
      "ĠFried": 6947,
      "Ġwhy": 6948,
      "Ġrural": 6949,
      "Ġaccused": 6950,
      "Ġkilomet": 6951,
      "Ġpolicies": 6952,
      "iner": 6953,
      "Ġfly": 6954,
      "ĠAff": 6955,
      "raf": 6956,
      "ĠHy": 6957,
      "osite": 6958,
      "ĠWhere": 6959,
      "ibn": 6960,
      "Ġboys": 6961,
      "ĠPrincess": 6962,
      "ĠTai": 6963,
      "ĠGar": 6964,
      "ĠLyn": 6965,
      "Ġwritings": 6966,
      "Ġamounts": 6967,
      "91": 6968,
      "ĠCre": 6969,
      "ĠHan": 6970,
      "opt": 6971,
      "Ġassass": 6972,
      "Ġdepartment": 6973,
      "Ġmusicians": 6974,
      "Ġguitarist": 6975,
      "Ġconsecutive": 6976,
      "iable": 6977,
      "pool": 6978,
      "Ġlie": 6979,
      "ragon": 6980,
      "Ġsuccessfully": 6981,
      "Ġcriticism": 6982,
      "Or": 6983,
      "ipher": 6984,
      "Ġspaces": 6985,
      "Ġactors": 6986,
      "Ġdelay": 6987,
      "ĠAlexandria": 6988,
      "Ġtiss": 6989,
      "Ġtom": 6990,
      "ĠSon": 6991,
      "ĠMot": 6992,
      "ĠPrem": 6993,
      "ĠGreg": 6994,
      "appe": 6995,
      "ictional": 6996,
      "while": 6997,
      "Ġcapture": 6998,
      "Ġtraditionally": 6999,
      "Ne": 7000,
      "SO": 7001,
      "Ġinput": 7002,
      "Ġbow": 7003,
      "ĠRights": 7004,
      "Ġappropri": 7005,
      "Ġserves": 7006,
      "ĠMediterranean": 7007,
      "ĠFranklin": 7008,
      "Ġsatisf": 7009,
      "Ġmathematical": 7010,
      "Ġhabit": 7011,
      "ĠClinton": 7012,
      "don": 7013,
      "ĠToday": 7014,
      "Ġpros": 7015,
      "Ġweather": 7016,
      "Ġexpensive": 7017,
      "Ġdesigns": 7018,
      "Ġcapable": 7019,
      "Ġcharacteristics": 7020,
      "otswana": 7021,
      "Ġextremely": 7022,
      "Ġdiverse": 7023,
      "ĠMic": 7024,
      "ĠRoll": 7025,
      "Ġunderstand": 7026,
      "Ġflowers": 7027,
      "ĠAssy": 7028,
      "ĠLabour": 7029,
      "Ġteacher": 7030,
      "arp": 7031,
      "Ġanx": 7032,
      "Ġmix": 7033,
      "Ġhal": 7034,
      "abul": 7035,
      "Ġvalid": 7036,
      "1999": 7037,
      "law": 7038,
      "Ġtalk": 7039,
      "ĠBoy": 7040,
      "ĠWater": 7041,
      "ĠDig": 7042,
      "ĠOrig": 7043,
      "Ġpromotion": 7044,
      "Ġfundamental": 7045,
      "Ġstraight": 7046,
      "57": 7047,
      "Ġsoul": 7048,
      "ules": 7049,
      "emen": 7050,
      "ĠNight": 7051,
      "ounced": 7052,
      "Ġdistricts": 7053,
      "Ġ1949": 7054,
      "Ġfreedom": 7055,
      "Ġtitled": 7056,
      "Ġessential": 7057,
      "Le": 7058,
      "after": 7059,
      "bes": 7060,
      "enge": 7061,
      "Ġca": 7062,
      "Ġbranches": 7063,
      "ushed": 7064,
      "ĠMax": 7065,
      "Ġplate": 7066,
      "Ġconson": 7067,
      "ĠConference": 7068,
      "Ġadding": 7069,
      "Ġopin": 7070,
      "Ġguard": 7071,
      "Ġconsiderable": 7072,
      "ĠProvince": 7073,
      "ĠAristot": 7074,
      "ĠBu": 7075,
      "etime": 7076,
      "Ġ1927": 7077,
      "ĠWeb": 7078,
      "ĠEuro": 7079,
      "ĠVi": 7080,
      "ridges": 7081,
      "Ġ1956": 7082,
      "Ġvisual": 7083,
      "Ġhorse": 7084,
      "Ġincorporated": 7085,
      "Ġheadquarters": 7086,
      "ylvania": 7087,
      "ivered": 7088,
      "Ġ1918": 7089,
      "ĠDor": 7090,
      "Ġmovements": 7091,
      "Ġoperate": 7092,
      "ĠRussell": 7093,
      "Ġinvolves": 7094,
      "Ġruler": 7095,
      "Ġmoral": 7096,
      "ĠWed": 7097,
      "ĠLes": 7098,
      "Ġfloor": 7099,
      "Ġsuccessor": 7100,
      "Ġperiods": 7101,
      "Ġemployees": 7102,
      "ĠOpen": 7103,
      "Ġpilot": 7104,
      "ĠElizabeth": 7105,
      "||": 7106,
      "Ġsod": 7107,
      "Ġfresh": 7108,
      "ĠDanish": 7109,
      "ava": 7110,
      "Ġdescend": 7111,
      "Ġlinear": 7112,
      "Ġhistorians": 7113,
      "Ġdiscovery": 7114,
      "ĠInf": 7115,
      "Ġrugby": 7116,
      "ohn": 7117,
      "ĠBooks": 7118,
      "rison": 7119,
      "Ġrequest": 7120,
      "Ġcolleges": 7121,
      "ĠBulgarian": 7122,
      "Ġrapidly": 7123,
      "itness": 7124,
      "umes": 7125,
      "Ġresemb": 7126,
      "ĠThrough": 7127,
      "Ġproduces": 7128,
      "Ġ1941": 7129,
      "Ġwithdraw": 7130,
      "Ġbands": 7131,
      "Ġabandoned": 7132,
      "gers": 7133,
      "ilit": 7134,
      "istical": 7135,
      "ĠVan": 7136,
      "ĠUnivers": 7137,
      "Ġcharacterized": 7138,
      "shire": 7139,
      "Ġbusinessman": 7140,
      "AP": 7141,
      "ĠFire": 7142,
      "agues": 7143,
      "riers": 7144,
      "Ġate": 7145,
      "ĠChad": 7146,
      "Ġleads": 7147,
      "Ġ1952": 7148,
      "Ġtransferred": 7149,
      "Ġadvertising": 7150,
      "Å«": 7151,
      "Ġvert": 7152,
      "left": 7153,
      "ĠBa": 7154,
      "ĠBond": 7155,
      "1980": 7156,
      "Ġlocations": 7157,
      "Ġinterpre": 7158,
      "Ġdescription": 7159,
      "Ġtournament": 7160,
      "ĊĠĊĠĊ": 7161,
      "ĠBM": 7162,
      "pton": 7163,
      "Ġevolved": 7164,
      "enny": 7165,
      "Ġrepresenting": 7166,
      "Ġattacked": 7167,
      "Ġdetermine": 7168,
      "Ġprices": 7169,
      "eign": 7170,
      "rong": 7171,
      "Ġthrone": 7172,
      "Ġyouth": 7173,
      "Ġinvent": 7174,
      "ĠArmenian": 7175,
      "Ġcomponent": 7176,
      "cribed": 7177,
      "Ġjurisd": 7178,
      "Ġfile": 7179,
      "ĠCay": 7180,
      "Ġthing": 7181,
      "ĠLet": 7182,
      "ĠLine": 7183,
      "Ġ44": 7184,
      "Ġincident": 7185,
      "Ġexpand": 7186,
      "2001": 7187,
      "Ġpromote": 7188,
      "ĠTajik": 7189,
      "How": 7190,
      "Ġille": 7191,
      "erals": 7192,
      "ĠTro": 7193,
      "ĠPolit": 7194,
      "Ġanalog": 7195,
      "Ġnewspapers": 7196,
      "osaurus": 7197,
      "Ġtim": 7198,
      "Ġmist": 7199,
      "Ġasc": 7200,
      "ĠPubl": 7201,
      "illes": 7202,
      "Ġneuro": 7203,
      "Ġowner": 7204,
      "Ġfrequency": 7205,
      "%),": 7206,
      "Å¡": 7207,
      "ĠPower": 7208,
      "ĠHa": 7209,
      "Ġchampion": 7210,
      "Ġformally": 7211,
      "Ġprinciples": 7212,
      "Ġcriticized": 7213,
      "LA": 7214,
      "Ġtherapy": 7215,
      "ĠBav": 7216,
      "ĠFame": 7217,
      "Ġ1928": 7218,
      "ambig": 7219,
      "Ġprofit": 7220,
      "deen": 7221,
      "Ġdebate": 7222,
      "Ġmountains": 7223,
      "going": 7224,
      "ĠWarsaw": 7225,
      "Rel": 7226,
      "oen": 7227,
      "Ġintern": 7228,
      "eys": 7229,
      "cycl": 7230,
      "Ġcoverage": 7231,
      "ĠFlight": 7232,
      "ĠMonday": 7233,
      "Ġsymptoms": 7234,
      "Ġtennis": 7235,
      "Ġdie": 7236,
      "abilities": 7237,
      "anna": 7238,
      "Ġphysics": 7239,
      "Ġachieve": 7240,
      "Ġestablishment": 7241,
      "ĠFreder": 7242,
      "ĠOrganization": 7243,
      "die": 7244,
      "Ġri": 7245,
      "Ġcrow": 7246,
      "Ġreaching": 7247,
      "rient": 7248,
      "Ġsole": 7249,
      "ysics": 7250,
      "Ġtwelve": 7251,
      "Ġvariable": 7252,
      "Ġcommitted": 7253,
      "ĠMiller": 7254,
      "Ġtickets": 7255,
      "SI": 7256,
      "Ġfought": 7257,
      "aste": 7258,
      "ĠTony": 7259,
      "ĠIraq": 7260,
      "hedral": 7261,
      "Ġunderstood": 7262,
      "tym": 7263,
      "ĠMarc": 7264,
      "gov": 7265,
      "rell": 7266,
      "ĠFle": 7267,
      "reek": 7268,
      "ĠOrchestra": 7269,
      "ymn": 7270,
      "Ġdelivered": 7271,
      "RI": 7272,
      "larg": 7273,
      "rin": 7274,
      "Ġbag": 7275,
      "Ġfounder": 7276,
      "ĠBrand": 7277,
      "ĠMach": 7278,
      "Ġgovernments": 7279,
      "Ġscreenwriter": 7280,
      "ĠMountains": 7281,
      "Ġpassengers": 7282,
      "Ġneighborhood": 7283,
      "ĠCosta": 7284,
      "Ġabsolute": 7285,
      "rity": 7286,
      "ainment": 7287,
      "Ġimperial": 7288,
      "ĠDev": 7289,
      "Ġlongest": 7290,
      "Ġeffectively": 7291,
      "ĠPlan": 7292,
      "top": 7293,
      "erate": 7294,
      "Ġinhib": 7295,
      "ĠLim": 7296,
      "ocument": 7297,
      "Ġkings": 7298,
      "ĠConvention": 7299,
      "Ġdecay": 7300,
      "ussels": 7301,
      "Ġappearances": 7302,
      "Ġstrip": 7303,
      "73": 7304,
      "ĠDam": 7305,
      "Ġindigenous": 7306,
      "ocked": 7307,
      "Ġrestrict": 7308,
      "Ġrenew": 7309,
      "Ġsuffering": 7310,
      "ĠNapole": 7311,
      "worth": 7312,
      "Ġresident": 7313,
      "Ġimages": 7314,
      "ificial": 7315,
      "1200": 7316,
      "Ġprompt": 7317,
      "ĠHarry": 7318,
      "Ġgradually": 7319,
      "ĠAle": 7320,
      "olia": 7321,
      "2003": 7322,
      "Ġmassive": 7323,
      "Ġderiv": 7324,
      "Ġsort": 7325,
      "Ġ1919": 7326,
      "abil": 7327,
      "ĠKent": 7328,
      "Ġcolumn": 7329,
      "Ġdecor": 7330,
      "Ġchemistry": 7331,
      "ijing": 7332,
      "BT": 7333,
      "lig": 7334,
      "Ã¸": 7335,
      "ĠJane": 7336,
      "Ġdetails": 7337,
      "Ġcited": 7338,
      "Ġmap": 7339,
      "omes": 7340,
      "omorph": 7341,
      "Ġplus": 7342,
      "Ġroads": 7343,
      "Ġarticles": 7344,
      "ĠAbra": 7345,
      "Ġnovels": 7346,
      "Ġcopper": 7347,
      "Ġdocuments": 7348,
      "Ġcredited": 7349,
      "Ġconsumption": 7350,
      "ĠCastle": 7351,
      "Ġcontroversy": 7352,
      "ĠCarolina": 7353,
      "billion": 7354,
      "olas": 7355,
      "igan": 7356,
      "Ġbeer": 7357,
      "ĠHell": 7358,
      "rix": 7359,
      "apes": 7360,
      "Ġaudio": 7361,
      "71": 7362,
      "ĠDip": 7363,
      "2004": 7364,
      "Ġperforming": 7365,
      "ĠWeek": 7366,
      "Ġpione": 7367,
      "ader": 7368,
      "ulty": 7369,
      "overeign": 7370,
      "Ġjump": 7371,
      "Ġopposite": 7372,
      "Ġcontestants": 7373,
      "claimed": 7374,
      "ĠNetwork": 7375,
      "sk": 7376,
      "Ġshut": 7377,
      "Ġbuys": 7378,
      "Ġfoundation": 7379,
      "ĠBefore": 7380,
      "Ġstrongly": 7381,
      "ĠBasque": 7382,
      "ĠColumbus": 7383,
      "59": 7384,
      "Not": 7385,
      "Ġsulf": 7386,
      "ĠPC": 7387,
      "Ġselection": 7388,
      "abled": 7389,
      "Ġtruth": 7390,
      "Ġfunds": 7391,
      "Ġtransportation": 7392,
      "ĠChampionships": 7393,
      "pet": 7394,
      "Ġwatch": 7395,
      "Ġmamm": 7396,
      "ĠSa": 7397,
      "unes": 7398,
      "ĠChris": 7399,
      "Ġviewed": 7400,
      "ĠForeign": 7401,
      "ĠSanta": 7402,
      "Ġtreated": 7403,
      "ĠTay": 7404,
      "Ġexcess": 7405,
      "ĠVis": 7406,
      "ysical": 7407,
      "Ġflag": 7408,
      "Ġlegs": 7409,
      "Ġprocessing": 7410,
      "Ġstatistics": 7411,
      "ĠCommonwealth": 7412,
      "ixture": 7413,
      "Pop": 7414,
      "jo": 7415,
      "language": 7416,
      "Ġfram": 7417,
      "Ġmor": 7418,
      "Ġmobile": 7419,
      "Ġexport": 7420,
      "Ġrelief": 7421,
      "Ġsupporters": 7422,
      "Ġshortly": 7423,
      "Ġadapted": 7424,
      "Ġescape": 7425,
      "53": 7426,
      "operation": 7427,
      "Ġcomic": 7428,
      "angel": 7429,
      "Ġaccident": 7430,
      "Ġends": 7431,
      "ĠAbu": 7432,
      "Med": 7433,
      "idel": 7434,
      "ĠOd": 7435,
      "Ġnothing": 7436,
      "ĠStation": 7437,
      "Polit": 7438,
      "ez": 7439,
      "ĠCO": 7440,
      "idal": 7441,
      "Ġstadium": 7442,
      "ateur": 7443,
      "endar": 7444,
      "anye": 7445,
      "ruption": 7446,
      "oka": 7447,
      "ĠConc": 7448,
      "Ġpaintings": 7449,
      "Ġaqu": 7450,
      "Ġmales": 7451,
      "ĠHome": 7452,
      "Ġcompl": 7453,
      "Ġcarrying": 7454,
      "2002": 7455,
      "Ġorganisms": 7456,
      "Ġ1938": 7457,
      "Ġfunding": 7458,
      "ĠTrade": 7459,
      "Ġadults": 7460,
      "Ġalphabet": 7461,
      "ĠâĢľ": 7462,
      "iest": 7463,
      "Ġtrying": 7464,
      "Ġbed": 7465,
      "ĠRet": 7466,
      "Ġsched": 7467,
      "Ġagent": 7468,
      "Ġforming": 7469,
      "1997": 7470,
      "Ġbehavi": 7471,
      "Ġpurchase": 7472,
      "hu": 7473,
      "Ġfestival": 7474,
      "ĠHun": 7475,
      "Ġrub": 7476,
      "Ġrandom": 7477,
      "soft": 7478,
      "Ġcomprehens": 7479,
      "Ġnote": 7480,
      "ĠStra": 7481,
      "ĠAtt": 7482,
      "Ġprofessor": 7483,
      "Ġmeasured": 7484,
      "ĠRegion": 7485,
      "Ġaxi": 7486,
      "Ġarrested": 7487,
      "inu": 7488,
      "Ġreactions": 7489,
      "ĠMun": 7490,
      "Ġ1924": 7491,
      "acent": 7492,
      "Ġplot": 7493,
      "atern": 7494,
      "hered": 7495,
      "Ġexplo": 7496,
      "ĠBrig": 7497,
      "Ġprovinces": 7498,
      "Rec": 7499,
      "fort": 7500,
      "inian": 7501,
      "icide": 7502,
      "Ġmand": 7503,
      "ĠSports": 7504,
      "ĠBalk": 7505,
      "osph": 7506,
      "ĠWork": 7507,
      "Ġslaves": 7508,
      "ĠPhilos": 7509,
      "iveness": 7510,
      "opping": 7511,
      "Ġsubstantial": 7512,
      "but": 7513,
      "vious": 7514,
      "hetic": 7515,
      "Ġwinners": 7516,
      "Ġinform": 7517,
      "Ġscenes": 7518,
      "Ġrefuge": 7519,
      "Ġmeasures": 7520,
      "Ġstyles": 7521,
      "\"|": 7522,
      "Ac": 7523,
      "ĠPass": 7524,
      "Ġshall": 7525,
      "Ġphon": 7526,
      "Ġgenerated": 7527,
      "Ġexisted": 7528,
      "upport": 7529,
      "piration": 7530,
      "ĠBabyl": 7531,
      "Us": 7532,
      "pass": 7533,
      "erg": 7534,
      "Ġ1954": 7535,
      "ski": 7536,
      "ĠSatur": 7537,
      "ĠEU": 7538,
      "ifies": 7539,
      "ogs": 7540,
      "ĠKanye": 7541,
      "Ġperfect": 7542,
      "overty": 7543,
      "Ġ52": 7544,
      "ĠSciences": 7545,
      "Ġparticle": 7546,
      "Ġinfantry": 7547,
      "Ġeducational": 7548,
      "ĠTeam": 7549,
      "Ġcharges": 7550,
      "Ġdialects": 7551,
      "ER": 7552,
      "long": 7553,
      "sylvania": 7554,
      "tion": 7555,
      "Ãº": 7556,
      "roup": 7557,
      "Ġgrav": 7558,
      "ĠIv": 7559,
      "ĠGh": 7560,
      "aked": 7561,
      "Ġacknow": 7562,
      "Ġmusician": 7563,
      "ĠSimon": 7564,
      "ĠAlberta": 7565,
      "ĠOhio": 7566,
      "Ġtren": 7567,
      "Ġbone": 7568,
      "Ġbird": 7569,
      "Ġ250": 7570,
      "ĠHou": 7571,
      "orses": 7572,
      "arked": 7573,
      "Ġgross": 7574,
      "2009": 7575,
      "oque": 7576,
      "Ġmir": 7577,
      "ĠAcc": 7578,
      "oming": 7579,
      "Ġreferences": 7580,
      "uties": 7581,
      "ĠHay": 7582,
      "Ġ1929": 7583,
      "ersonal": 7584,
      "keley": 7585,
      "Ġsoldier": 7586,
      "Ġconcepts": 7587,
      "ĠAlexandra": 7588,
      "ĠBetween": 7589,
      "82": 7590,
      "produ": 7591,
      "Ġfellow": 7592,
      "asi": 7593,
      "ĠAN": 7594,
      "osh": 7595,
      "ĠIndust": 7596,
      "Ġfounding": 7597,
      "Ġmilk": 7598,
      "Ġdestruction": 7599,
      "Ġscholar": 7600,
      "Ġdominated": 7601,
      "Ġminimum": 7602,
      "ĠProtestant": 7603,
      "fare": 7604,
      "erv": 7605,
      "arry": 7606,
      "Ġanch": 7607,
      "stal": 7608,
      "Ġyards": 7609,
      "ĠThird": 7610,
      "Ġtrav": 7611,
      "ĠSwiss": 7612,
      "ĠSamuel": 7613,
      "Ġcorresponding": 7614,
      "ĠAmazon": 7615,
      "ĠConstantin": 7616,
      "Ġcriminal": 7617,
      "utenant": 7618,
      "bear": 7619,
      "Ġfranch": 7620,
      "Ġhip": 7621,
      "aths": 7622,
      "Ġentry": 7623,
      "pected": 7624,
      "Ġrunner": 7625,
      "Ġprepared": 7626,
      "French": 7627,
      "National": 7628,
      "Ġfilled": 7629,
      "ĠDest": 7630,
      "Ġadvent": 7631,
      "ĠAlan": 7632,
      "domin": 7633,
      "Ġindicated": 7634,
      "Ġconsisted": 7635,
      "ĠJacob": 7636,
      "\";": 7637,
      "Pre": 7638,
      "uz": 7639,
      "Ġpartner": 7640,
      "Ġaccord": 7641,
      "ierre": 7642,
      "Ġelectrons": 7643,
      "speaking": 7644,
      "ES": 7645,
      "esc": 7646,
      "Ġstrict": 7647,
      "ĠAlger": 7648,
      "Ġengines": 7649,
      "Ġencounter": 7650,
      "ĠCameroon": 7651,
      "lik": 7652,
      "vements": 7653,
      "Ġathlet": 7654,
      "ĠCrow": 7655,
      "Ġ1900": 7656,
      "ĠLi": 7657,
      "Ġflo": 7658,
      "Ġassemb": 7659,
      "Ġlasted": 7660,
      "ĠAirlines": 7661,
      "Ġaccompanied": 7662,
      "power": 7663,
      "Ġreality": 7664,
      "ĠFront": 7665,
      "ĠEvery": 7666,
      "Ġorigins": 7667,
      "ourses": 7668,
      "Ġsocieties": 7669,
      "Ġrepresentation": 7670,
      "Ġuniversal": 7671,
      "Ġborrow": 7672,
      "81": 7673,
      "oids": 7674,
      "Ġpool": 7675,
      "ĠKy": 7676,
      "2011": 7677,
      "Ġshowing": 7678,
      "Ġlegend": 7679,
      "Ġreduction": 7680,
      "ĠHungarian": 7681,
      "Ġion": 7682,
      "Ġtact": 7683,
      "Ġtask": 7684,
      "ĠSus": 7685,
      "Ġorb": 7686,
      "Ġclim": 7687,
      "ĠVill": 7688,
      "2012": 7689,
      "Ġsigns": 7690,
      "Ġimmigrants": 7691,
      "ĠErn": 7692,
      "Ġbenefit": 7693,
      "Ġsomewhat": 7694,
      "fe": 7695,
      "pa": 7696,
      "uis": 7697,
      "Ġpitch": 7698,
      "rome": 7699,
      "Ġthemes": 7700,
      "ussian": 7701,
      "Ġannually": 7702,
      "Ġbrothers": 7703,
      "Ġconcerned": 7704,
      "Ġcovers": 7705,
      "Ġmarg": 7706,
      "roc": 7707,
      "Ġ(,": 7708,
      "Ġabort": 7709,
      "Ġmeat": 7710,
      "Ġidentify": 7711,
      "Ġarrival": 7712,
      "Ġeyes": 7713,
      "ĠTemple": 7714,
      "74": 7715,
      "iency": 7716,
      "Ġlot": 7717,
      "Ġgram": 7718,
      "Ġstret": 7719,
      "ĠGri": 7720,
      "ategy": 7721,
      "aks": 7722,
      "teenth": 7723,
      "Ġroot": 7724,
      "Ġcolour": 7725,
      "Ġmonaster": 7726,
      "Ġblues": 7727,
      "Ġcoff": 7728,
      "ĠLeon": 7729,
      "ethod": 7730,
      "Ġelectronic": 7731,
      "Ġreviews": 7732,
      "gence": 7733,
      "Ð°": 7734,
      "heastern": 7735,
      "ede": 7736,
      "ĠCapt": 7737,
      "Ġcong": 7738,
      "Ġconj": 7739,
      "ĠGer": 7740,
      "Ġchick": 7741,
      "2015": 7742,
      "Ġsoil": 7743,
      "Ġrelationships": 7744,
      "Ġcollapse": 7745,
      "Ġchampionship": 7746,
      "German": 7747,
      "pective": 7748,
      "Ġtrading": 7749,
      "Ġstrategy": 7750,
      "ĠPennsylvania": 7751,
      "making": 7752,
      "Ġibn": 7753,
      "asure": 7754,
      "ĠLight": 7755,
      "ĠLuther": 7756,
      "aby": 7757,
      "Ġimag": 7758,
      "Ġshel": 7759,
      "Ġfavour": 7760,
      "Ġdiseases": 7761,
      "ĠRoger": 7762,
      "DA": 7763,
      "Ġcert": 7764,
      "ĠHit": 7765,
      "ĠFred": 7766,
      "ĠFederation": 7767,
      "ĠEle": 7768,
      "Ġtracks": 7769,
      "1998": 7770,
      "ĠBanglades": 7771,
      "NP": 7772,
      "wa": 7773,
      "ĠBrad": 7774,
      "ĠFather": 7775,
      "ichuan": 7776,
      "They": 7777,
      "Ġinstruction": 7778,
      "Ġopera": 7779,
      "Ġensure": 7780,
      "iÄĩ": 7781,
      "Ġmanner": 7782,
      "ĠBotswana": 7783,
      "ĠDet": 7784,
      "Ġunus": 7785,
      "ĠAnat": 7786,
      "ĠThough": 7787,
      "Ġvisible": 7788,
      "Ġaffili": 7789,
      "elaide": 7790,
      "Ġatmosphere": 7791,
      "ĠFriday": 7792,
      "Living": 7793,
      "run": 7794,
      "Ġcamer": 7795,
      "ĠDue": 7796,
      "Ġphysic": 7797,
      "Char": 7798,
      "Ġspacecraft": 7799,
      "Ġrecognition": 7800,
      "ĠĊĠĊĠĊĠĊĠĊĠĊĠĊĠĊ": 7801,
      "ĠSecurity": 7802,
      "Ġinjury": 7803,
      "ĠDenmark": 7804,
      "ĠBuffalo": 7805,
      "Ġrevenue": 7806,
      "ĠLie": 7807,
      "Ġenh": 7808,
      "Ġentitled": 7809,
      "Ġphilosophers": 7810,
      "Ġdistributed": 7811,
      "Ġsymbols": 7812,
      "ĠFrancis": 7813,
      "Ġprotected": 7814,
      "ĠAdditionally": 7815,
      "ĠWednes": 7816,
      "ĠBad": 7817,
      "Ġstim": 7818,
      "Ġstorm": 7819,
      "Ġconference": 7820,
      "Ġ1910": 7821,
      "Ġdispl": 7822,
      "hammad": 7823,
      "ĠBrother": 7824,
      "Mar": 7825,
      "rat": 7826,
      "orus": 7827,
      "unior": 7828,
      "rage": 7829,
      "ĠDak": 7830,
      "Ġintelligence": 7831,
      "ĠOnly": 7832,
      "Ġdirectors": 7833,
      "ĠComputer": 7834,
      "Ġcategories": 7835,
      "ĠOperation": 7836,
      "itzerland": 7837,
      "ĠConstantinople": 7838,
      "Ġaware": 7839,
      "Ġpul": 7840,
      "Ġdrew": 7841,
      "ĠMes": 7842,
      "ĠFund": 7843,
      "avel": 7844,
      "ials": 7845,
      "anged": 7846,
      "Ġbroken": 7847,
      "Ġmilit": 7848,
      "ĠWallace": 7849,
      "Ġdoctrine": 7850,
      "Ġwing": 7851,
      "Ġindu": 7852,
      "Ġdating": 7853,
      "ĠTen": 7854,
      "ĠHo": 7855,
      "ĠLM": 7856,
      "ĠArsen": 7857,
      "Ġ1953": 7858,
      "Ġinfrastructure": 7859,
      "ĠBrussels": 7860,
      "avalry": 7861,
      "Ġcups": 7862,
      "Ġbars": 7863,
      "Ġbags": 7864,
      "ĠSyd": 7865,
      "ĠRen": 7866,
      "ĠFa": 7867,
      "Ġ1917": 7868,
      "Ġvoted": 7869,
      "Ġlect": 7870,
      "Ġspot": 7871,
      "talion": 7872,
      "Ġestate": 7873,
      "Ġclassification": 7874,
      "ĠGlobal": 7875,
      "Ġangle": 7876,
      "Ġelectricity": 7877,
      "adelph": 7878,
      "App": 7879,
      "jamin": 7880,
      "ĠBorn": 7881,
      "Ġclothing": 7882,
      "ails": 7883,
      "Ġmode": 7884,
      "ĠAdrian": 7885,
      "iverpool": 7886,
      "Ġengaged": 7887,
      "Ġoriginated": 7888,
      "Ġpainting": 7889,
      "Ġsurviving": 7890,
      "Ġcaptain": 7891,
      "Ġexecuted": 7892,
      "Ġpersons": 7893,
      "ĠLady": 7894,
      "Ġtry": 7895,
      "Ġtouch": 7896,
      "ompl": 7897,
      "ĠBart": 7898,
      "ĠChannel": 7899,
      "ĠVideo": 7900,
      "Ġassembly": 7901,
      "Ġextension": 7902,
      "Ġoccas": 7903,
      "Ġpublicly": 7904,
      "Ġexplained": 7905,
      "1970": 7906,
      "Ġcontroversial": 7907,
      "ĠAberdeen": 7908,
      "European": 7909,
      "ĠSaturday": 7910,
      "Ġinner": 7911,
      "Ġ1926": 7912,
      "eller": 7913,
      "dered": 7914,
      "Ġroots": 7915,
      "Ġ55": 7916,
      "Ġretained": 7917,
      "Ġdivisions": 7918,
      "Ġstanding": 7919,
      "Ġexplan": 7920,
      "Ġargument": 7921,
      "ĠMedal": 7922,
      "ĠMedia": 7923,
      "Ġtraveled": 7924,
      "Ġstrike": 7925,
      "Ġbiggest": 7926,
      "ĠWilson": 7927,
      "enhagen": 7928,
      "Ġstrugg": 7929,
      "ambiguation": 7930,
      "Ġfoss": 7931,
      "omical": 7932,
      "olid": 7933,
      "ĠMarsh": 7934,
      "ĠRon": 7935,
      "Ġvir": 7936,
      "Ġ39": 7937,
      "Ġpartly": 7938,
      "Ġcanon": 7939,
      "amps": 7940,
      "Ġpassing": 7941,
      "Ġ1933": 7942,
      "Ġsurvived": 7943,
      "ĠSimilar": 7944,
      "Ġpassenger": 7945,
      "Ġbaptism": 7946,
      "Ġresearchers": 7947,
      "ĠAristotle": 7948,
      "Ġmang": 7949,
      "ĠTit": 7950,
      "antly": 7951,
      "Ġrit": 7952,
      "Ġinvited": 7953,
      "ĠAugustine": 7954,
      "Ġideal": 7955,
      "Ġchess": 7956,
      "Ġmolecules": 7957,
      "Ġoccasionally": 7958,
      "isp": 7959,
      "Ġmorph": 7960,
      "Ġrecept": 7961,
      "ĠSax": 7962,
      "ifer": 7963,
      "Ġshif": 7964,
      "Ġracing": 7965,
      "ĠAdminist": 7966,
      "Ġ1937": 7967,
      "Ġtools": 7968,
      "ĠCab": 7969,
      "Ġ1922": 7970,
      "ĠNiger": 7971,
      "Ġplanning": 7972,
      "Ġkid": 7973,
      "Ġprey": 7974,
      "Ġweb": 7975,
      "Ġmodule": 7976,
      "Ġsupposed": 7977,
      "Ġexposure": 7978,
      "Ġreceiving": 7979,
      "1995": 7980,
      "idden": 7981,
      "ĠPremier": 7982,
      "icism": 7983,
      "rogen": 7984,
      "ĠIBM": 7985,
      "Ġsuit": 7986,
      "Ġrid": 7987,
      "Ġneither": 7988,
      "Ġslices": 7989,
      "Ġsuccession": 7990,
      "Ġdivide": 7991,
      "Ġmembership": 7992,
      "Ġproteins": 7993,
      "ĠImperial": 7994,
      "IT": 7995,
      "bishop": 7996,
      "Ġsells": 7997,
      "itations": 7998,
      "Ġinaug": 7999,
      "ĠSuch": 8000,
      "ĠMaster": 8001,
      "ĠNich": 8002,
      "ĠNever": 8003,
      "ĠKim": 8004,
      "ellite": 8005,
      "Ġappeal": 8006,
      "iac": 8007,
      "lon": 8008,
      "Ġaster": 8009,
      "Ġocean": 8010,
      "icas": 8011,
      "struct": 8012,
      "oma": 8013,
      "Ġaccompl": 8014,
      "Ġpriest": 8015,
      "ĠPalest": 8016,
      "Ġpencil": 8017,
      "Ġcustom": 8018,
      "Ġassumed": 8019,
      "ĠBusiness": 8020,
      "01": 8021,
      "uccess": 8022,
      "wall": 8023,
      "Ġsed": 8024,
      "Ġfaced": 8025,
      "Ġ1914": 8026,
      "ĠGulf": 8027,
      "ĠLt": 8028,
      "ĠLike": 8029,
      "angle": 8030,
      "ĠYank": 8031,
      "iversary": 8032,
      "ailed": 8033,
      "Ġdocumentary": 8034,
      "ĠWalter": 8035,
      "Ġnickn": 8036,
      "uet": 8037,
      "Ġsovereign": 8038,
      "ĠGir": 8039,
      "ĠKelly": 8040,
      "Ġdozen": 8041,
      "ĠReport": 8042,
      "zegov": 8043,
      "amaic": 8044,
      "Ġnetworks": 8045,
      "Ġlinked": 8046,
      "69": 8047,
      "ding": 8048,
      "Ġtests": 8049,
      "Ġcaught": 8050,
      "Ġmac": 8051,
      "phrod": 8052,
      "erald": 8053,
      "Ġsurpr": 8054,
      "enness": 8055,
      "Ġhistorically": 8056,
      "ĠTransport": 8057,
      "ĠStandard": 8058,
      "Ġdemonstrated": 8059,
      "bage": 8060,
      "rose": 8061,
      "Ġnaval": 8062,
      "ĠBuilding": 8063,
      "ĠAnne": 8064,
      "Ġassistance": 8065,
      "asha": 8066,
      "Ġexplicit": 8067,
      "Ġpractical": 8068,
      "Ġlearned": 8069,
      "Ġexperiments": 8070,
      "ĠCeltic": 8071,
      "Ġphrase": 8072,
      "Histor": 8073,
      "aver": 8074,
      "atics": 8075,
      "Ġcir": 8076,
      "Ġfine": 8077,
      "ĠAld": 8078,
      "that": 8079,
      "Ġ49": 8080,
      "ĠAramaic": 8081,
      "Ġcarrier": 8082,
      "ĠOnce": 8083,
      "Another": 8084,
      "Ġconfig": 8085,
      "Ġchanging": 8086,
      "Ġrequirements": 8087,
      "Following": 8088,
      "ho": 8089,
      "vey": 8090,
      "Ġinse": 8091,
      "Ġ().": 8092,
      "Ġstating": 8093,
      "Ġstages": 8094,
      "Ġeval": 8095,
      "Ġreputation": 8096,
      "Ġ1951": 8097,
      "scale": 8098,
      "Ġ1936": 8099,
      "Ġtourism": 8100,
      "Ġborough": 8101,
      "Ġdrawn": 8102,
      "ĠGrammy": 8103,
      "Ġanxiety": 8104,
      "ĠAbraham": 8105,
      "alysis": 8106,
      "eman": 8107,
      "Ġvel": 8108,
      "ĠReview": 8109,
      "Ġsurren": 8110,
      "Ġadvoc": 8111,
      "Ġtreaty": 8112,
      "Ġfemin": 8113,
      "ĠSpears": 8114,
      "Ġvocals": 8115,
      "Ġpatterns": 8116,
      "Ġteachings": 8117,
      "disambiguation": 8118,
      "iblical": 8119,
      "Ġmathematician": 8120,
      "eed": 8121,
      "rep": 8122,
      "itarian": 8123,
      "Ġ1925": 8124,
      "ework": 8125,
      "Ġagents": 8126,
      "Ġelectrical": 8127,
      "Ġreturning": 8128,
      "iliar": 8129,
      "Ġmechanical": 8130,
      "ozo": 8131,
      "Ġalleg": 8132,
      "Ġmessage": 8133,
      "Ġbriefly": 8134,
      "Members": 8135,
      "Ġnom": 8136,
      "Ġprohib": 8137,
      "Ġshift": 8138,
      "Ġherself": 8139,
      "Ġmachines": 8140,
      "Ġconstitutional": 8141,
      "Ġrarely": 8142,
      "Ġsleep": 8143,
      "adelphia": 8144,
      "zegovina": 8145,
      "itudes": 8146,
      "Ġdiet": 8147,
      "ĠMand": 8148,
      "ĠLov": 8149,
      "Ġroutes": 8150,
      "Ġedge": 8151,
      "zona": 8152,
      "Ġtanks": 8153,
      "Ġconspir": 8154,
      "ĠMarine": 8155,
      "ĠPhill": 8156,
      "ossible": 8157,
      "Ġmerch": 8158,
      "Ġparticipated": 8159,
      "Ġcelebrated": 8160,
      "Ġdrama": 8161,
      "Ġpreferred": 8162,
      "Sources": 8163,
      "rors": 8164,
      "Ġmental": 8165,
      "Ġdress": 8166,
      "oli": 8167,
      "ayana": 8168,
      "Ġheard": 8169,
      "ricks": 8170,
      "Ġassess": 8171,
      "Ġantim": 8172,
      "ĠBeijing": 8173,
      "ĠAllen": 8174,
      "scape": 8175,
      "That": 8176,
      "ĠSwitzerland": 8177,
      "Ġmissile": 8178,
      "Ġestimates": 8179,
      "Ġmomentum": 8180,
      "ĠAnthony": 8181,
      "NT": 8182,
      "inite": 8183,
      "Ġfert": 8184,
      "icill": 8185,
      "ĠMit": 8186,
      "otten": 8187,
      "ĠFall": 8188,
      "usted": 8189,
      "Ġimpr": 8190,
      "othy": 8191,
      "Ġgene": 8192,
      "Ġflood": 8193,
      "Ġcolors": 8194,
      "Ġbases": 8195,
      "apping": 8196,
      "Ġlegislation": 8197,
      "ĠMuhammad": 8198,
      "hyth": 8199,
      "ĠArea": 8200,
      "ĠArkansas": 8201,
      "ĠTaylor": 8202,
      "aration": 8203,
      "ĠGord": 8204,
      "ĠEc": 8205,
      "ĠNik": 8206,
      "Ġattached": 8207,
      "Ġgenre": 8208,
      "Ġinterface": 8209,
      "Ġretire": 8210,
      "Ġoffices": 8211,
      "Ġsubjects": 8212,
      "Ġhorizon": 8213,
      "ĠBelgian": 8214,
      "Ġfruit": 8215,
      "cyclop": 8216,
      "track": 8217,
      "adow": 8218,
      "Ġraise": 8219,
      "Ġclassic": 8220,
      "Ġ1931": 8221,
      "Ġloan": 8222,
      "opped": 8223,
      "Ġhundreds": 8224,
      "Ġhyper": 8225,
      "Ġconventional": 8226,
      "Ġsend": 8227,
      "Ġwars": 8228,
      "ĠAth": 8229,
      "ĠAqu": 8230,
      "ĠLiverpool": 8231,
      "avian": 8232,
      "uble": 8233,
      "Ġdoctor": 8234,
      "flu": 8235,
      "ĠProte": 8236,
      "Ġoffering": 8237,
      "Ġlosses": 8238,
      "Ġneighbour": 8239,
      "ĠKnight": 8240,
      "foot": 8241,
      "tainment": 8242,
      "ĠCra": 8243,
      "ĠBush": 8244,
      "ĠDomin": 8245,
      "aret": 8246,
      "Ġphilosophical": 8247,
      "Ġregularly": 8248,
      "Ġadjacent": 8249,
      "cock": 8250,
      "ĠTs": 8251,
      "ĠTy": 8252,
      "ĠRem": 8253,
      "Ġchose": 8254,
      "Ġinvented": 8255,
      "Ġmetropolitan": 8256,
      "ĠMuslims": 8257,
      "di": 8258,
      "Ġtells": 8259,
      "Ġfil": 8260,
      "ĠAL": 8261,
      "Ġ1913": 8262,
      "Ġ72": 8263,
      "Ġsupplies": 8264,
      "1992": 8265,
      "ĠPeace": 8266,
      "ĠMalays": 8267,
      "Ġforests": 8268,
      "atched": 8269,
      "ĠPra": 8270,
      "ĠHospital": 8271,
      "Ġvo": 8272,
      "Ġvector": 8273,
      "sea": 8274,
      "ourse": 8275,
      "Ġtransmission": 8276,
      "Ġsteps": 8277,
      "ĠSydney": 8278,
      "igious": 8279,
      "ĠRoss": 8280,
      "Ġsugar": 8281,
      "Ġchips": 8282,
      "Ġgrown": 8283,
      "1991": 8284,
      "Ġmissing": 8285,
      "Ġconcentrated": 8286,
      "ĠEconomic": 8287,
      "Ġhunting": 8288,
      "Ġtunnel": 8289,
      "ench": 8290,
      "Ġparent": 8291,
      "ĠMain": 8292,
      "employ": 8293,
      "ĠRos": 8294,
      "Ġarsen": 8295,
      "Ġdisk": 8296,
      "Ġvariation": 8297,
      "Ġpoison": 8298,
      "1996": 8299,
      "ĠBarcel": 8300,
      "Ġexplos": 8301,
      "Ġdenied": 8302,
      "Ġholid": 8303,
      "Ġinher": 8304,
      "icular": 8305,
      "ilight": 8306,
      "ĠFair": 8307,
      "2018": 8308,
      "Ġtransform": 8309,
      "Ġcalling": 8310,
      "Ġelev": 8311,
      "ĠHerzegovina": 8312,
      "Ġfemales": 8313,
      "Ġdomain": 8314,
      "ĠHungary": 8315,
      "Bibliography": 8316,
      "Ġgal": 8317,
      "ĠLind": 8318,
      "Ġdrink": 8319,
      "ommod": 8320,
      "Ġnode": 8321,
      "Ġru": 8322,
      "ductor": 8323,
      "ikh": 8324,
      "Ġexplain": 8325,
      "Ġimplemented": 8326,
      "ĠWednesday": 8327,
      "jection": 8328,
      "sal": 8329,
      "Ġbright": 8330,
      "Ġpoverty": 8331,
      "Ġeagle": 8332,
      "ĠPit": 8333,
      "Ġcompound": 8334,
      "Ġvaries": 8335,
      "Ġvalley": 8336,
      "ĠBenjamin": 8337,
      "ĠBaltic": 8338,
      "ester": 8339,
      "Ġfaster": 8340,
      "ilton": 8341,
      "ĠCry": 8342,
      "eler": 8343,
      "ĠBrian": 8344,
      "rac": 8345,
      "ĠWrit": 8346,
      "ĠWild": 8347,
      "ĠStock": 8348,
      "ĠAncient": 8349,
      "2014": 8350,
      "Ã©e": 8351,
      "Ġorganic": 8352,
      "Ġpossibility": 8353,
      "Ġ1932": 8354,
      "Ġconversion": 8355,
      "Ġaluminium": 8356,
      "130": 8357,
      "John": 8358,
      "east": 8359,
      "Ġlose": 8360,
      "otional": 8361,
      "ĠTheod": 8362,
      "ĠJury": 8363,
      "Ġgenus": 8364,
      "Ġsubstit": 8365,
      "Ġexpedition": 8366,
      "Ġmainstream": 8367,
      "ĠDemocr": 8368,
      "Austral": 8369,
      "ĠDakota": 8370,
      "Ġnavig": 8371,
      "ĠHindu": 8372,
      "phib": 8373,
      "Ġneck": 8374,
      "Ġinterests": 8375,
      "ĠClark": 8376,
      "Ġcommittee": 8377,
      "Ġpoetry": 8378,
      "Ġrecommended": 8379,
      "ĠSpectre": 8380,
      "Ġtoxic": 8381,
      "ET": 8382,
      "Ġod": 8383,
      "amas": 8384,
      "amics": 8385,
      "ĠBack": 8386,
      "ĠBurg": 8387,
      "ĠEinstein": 8388,
      "Ġcompat": 8389,
      "Ġyour": 8390,
      "iege": 8391,
      "ensions": 8392,
      "Ġracial": 8393,
      "overnment": 8394,
      "Ġdistinction": 8395,
      "ĠTherefore": 8396,
      "Ġvisitors": 8397,
      "ĠRailway": 8398,
      "CS": 8399,
      "Ġsalt": 8400,
      "Ġcodes": 8401,
      "oust": 8402,
      "using": 8403,
      "Ġvice": 8404,
      "ĠJord": 8405,
      "ultane": 8406,
      "Ġrecip": 8407,
      "ĠAmb": 8408,
      "ĠAmiga": 8409,
      "ĠRepresent": 8410,
      "Ġpatron": 8411,
      "Ġdiagn": 8412,
      "imensional": 8413,
      "Ġlaid": 8414,
      "ching": 8415,
      "agre": 8416,
      "ĠStone": 8417,
      "Ġassistant": 8418,
      "Ġsynd": 8419,
      "Ġsuperior": 8420,
      "Ġdamaged": 8421,
      "prof": 8422,
      "ĠBruce": 8423,
      "Roman": 8424,
      "ders": 8425,
      "Ġsav": 8426,
      "Ġwa": 8427,
      "Ġfan": 8428,
      "Ġdiox": 8429,
      "ĠBerm": 8430,
      "irk": 8431,
      "Ġcomplic": 8432,
      "2013": 8433,
      "ĠColon": 8434,
      "Ġiniti": 8435,
      "Ġmechanism": 8436,
      "Ġweapon": 8437,
      "Ġthermal": 8438,
      "Ġopportunity": 8439,
      "ĠCayman": 8440,
      "asters": 8441,
      "Ġammon": 8442,
      "uchy": 8443,
      "Ġvarieties": 8444,
      "ĠAdv": 8445,
      "Ġabsence": 8446,
      "Ġdenomin": 8447,
      "ĠCaes": 8448,
      "rolled": 8449,
      "Ġproportion": 8450,
      "Ġlyrics": 8451,
      "Ġastronauts": 8452,
      "West": 8453,
      "itals": 8454,
      "Ġfal": 8455,
      "Ġhuge": 8456,
      "ĠDur": 8457,
      "ĠInstead": 8458,
      "Ġcompris": 8459,
      "ensed": 8460,
      "2017": 8461,
      "Ġupd": 8462,
      "Ġinflation": 8463,
      "Ġparam": 8464,
      "Ġindustries": 8465,
      "Ġcontributions": 8466,
      "ĠDougl": 8467,
      "ĠDefense": 8468,
      "bec": 8469,
      "des": 8470,
      "Î±": 8471,
      "Ġsample": 8472,
      "ĠBow": 8473,
      "ĠFord": 8474,
      "Ġranging": 8475,
      "athy": 8476,
      "Ġfled": 8477,
      "Ġinterior": 8478,
      "center": 8479,
      "ĠProdu": 8480,
      "ĠBerkeley": 8481,
      "Ġantibiotic": 8482,
      "Ġcricketer": 8483,
      "Ġprinted": 8484,
      "ĠMemorial": 8485,
      "Leg": 8486,
      "avery": 8487,
      "box": 8488,
      "rary": 8489,
      "Ġborders": 8490,
      "lete": 8491,
      "Ġcans": 8492,
      "Ġinstall": 8493,
      "Ġanything": 8494,
      "Ġreplacing": 8495,
      "ĠPhiladelphia": 8496,
      "Ġbottles": 8497,
      "Ġsubstance": 8498,
      "Ġstreets": 8499,
      "bus": 8500,
      "gom": 8501,
      "Ð¸": 8502,
      "Ġcavalry": 8503,
      "Ġfiles": 8504,
      "ĠLate": 8505,
      "uster": 8506,
      "ĠVar": 8507,
      "Ġpredomin": 8508,
      "Ġcommem": 8509,
      "Ġexactly": 8510,
      "Ġrom": 8511,
      "ĠST": 8512,
      "Ġ1921": 8513,
      "ĠLast": 8514,
      "Ġagree": 8515,
      "Ġproducers": 8516,
      "Ġflour": 8517,
      "Ġsolutions": 8518,
      "Ġencod": 8519,
      "ĠMcC": 8520,
      "Ġacknowled": 8521,
      "Ag": 8522,
      "div": 8523,
      "ipe": 8524,
      "sky": 8525,
      "Ð¾": 8526,
      "Ĥ¬": 8527,
      "Ġsaved": 8528,
      "ĠFull": 8529,
      "ĠDocument": 8530,
      "teger": 8531,
      "Ġpregn": 8532,
      "ĠJohann": 8533,
      "ĠAdelaide": 8534,
      "Ġ1934": 8535,
      "Ġbegun": 8536,
      "Ġpenalty": 8537,
      "Ġsafe": 8538,
      "bourne": 8539,
      "Ġuncertain": 8540,
      "Ġpreserved": 8541,
      "ĠBrooklyn": 8542,
      "Port": 8543,
      "han": 8544,
      "Ġcub": 8545,
      "ĠOfficial": 8546,
      "Ġrecru": 8547,
      "Ġgenes": 8548,
      "Ġregime": 8549,
      "Ġdiscount": 8550,
      "Ġcoup": 8551,
      "Ġcricket": 8552,
      "Ġgraphics": 8553,
      "asp": 8554,
      "ĠMoh": 8555,
      "ĠRica": 8556,
      "Ġ1912": 8557,
      "Ġownership": 8558,
      "who": 8559,
      "Ġsurvive": 8560,
      "Ġvariant": 8561,
      "Ġillness": 8562,
      "Ġlogic": 8563,
      "ji": 8564,
      "Ġwrest": 8565,
      "Ġdated": 8566,
      "ĠBAS": 8567,
      "ĠImp": 8568,
      "Ġterror": 8569,
      "Ġreducing": 8570,
      "ÃŃa": 8571,
      "Ġmanufacturing": 8572,
      "ĠâĪĴ": 8573,
      "Ġdependent": 8574,
      "Ġalgebraic": 8575,
      "Ġnoble": 8576,
      "ĠNazi": 8577,
      "ĠEntertainment": 8578,
      "Tele": 8579,
      "trans": 8580,
      "Ġbishops": 8581,
      "Ġdual": 8582,
      "ĠAgency": 8583,
      "ĠAvenue": 8584,
      "ilitary": 8585,
      "raine": 8586,
      "Ġ41": 8587,
      "Ġsinging": 8588,
      "Ġmunicipality": 8589,
      "Ġnominated": 8590,
      "press": 8591,
      "Ġbicy": 8592,
      "ĠAphrod": 8593,
      "ĠFact": 8594,
      "Ġ1923": 8595,
      "Ġvision": 8596,
      "Ġdismiss": 8597,
      "Ġslave": 8598,
      "ĠBoeing": 8599,
      "Ġmarine": 8600,
      "Films": 8601,
      "700": 8602,
      "ĠAe": 8603,
      "Ġrear": 8604,
      "Ġstores": 8605,
      "Ġvul": 8606,
      "Ġaccommod": 8607,
      "ĠAbout": 8608,
      "Ġobtain": 8609,
      "Ġsubsid": 8610,
      "ĠBroadway": 8611,
      "Ġcurrency": 8612,
      "ĠIndonesia": 8613,
      "Ġjourney": 8614,
      "tymology": 8615,
      "Ê¼": 8616,
      "ĠCyp": 8617,
      "occ": 8618,
      "oren": 8619,
      "Ġpref": 8620,
      "Ġmining": 8621,
      "Ġ170": 8622,
      "Ġrebell": 8623,
      "Ġspoke": 8624,
      "Ġdetailed": 8625,
      "Ġcoffee": 8626,
      "cap": 8627,
      "iop": 8628,
      "Ġcable": 8629,
      "Ġmixture": 8630,
      "Ġhits": 8631,
      "elle": 8632,
      "Ġthick": 8633,
      "Ġchance": 8634,
      "Ġchocol": 8635,
      "ects": 8636,
      "Ġrose": 8637,
      "Ġdesigner": 8638,
      "ĠUSA": 8639,
      "Ġcloser": 8640,
      "ĠCardiff": 8641,
      "ĠBernard": 8642,
      "Ġexclusively": 8643,
      "Ġhypothesis": 8644,
      "ĠBaptist": 8645,
      "Ġrescue": 8646,
      "Alex": 8647,
      "MA": 8648,
      "Ġwins": 8649,
      "ĠCrit": 8650,
      "ĠGoth": 8651,
      "abs": 8652,
      "ĠOt": 8653,
      "1960": 8654,
      "Ġargues": 8655,
      "Ġvictims": 8656,
      "Ġarmies": 8657,
      "Ġcustomers": 8658,
      "Ġcrypt": 8659,
      "forcement": 8660,
      "Ġvowel": 8661,
      "aman": 8662,
      "ĠFal": 8663,
      "Ġvot": 8664,
      "ĠVI": 8665,
      "Ġinstalled": 8666,
      "ĠPolice": 8667,
      "Ġfacility": 8668,
      "rating": 8669,
      "ÅĤ": 8670,
      "Ġtied": 8671,
      "Ġfill": 8672,
      "Ġlists": 8673,
      "ĠMaur": 8674,
      "Ġaspir": 8675,
      "ithms": 8676,
      "ĠDram": 8677,
      "aga": 8678,
      "Ġsect": 8679,
      "Ġintent": 8680,
      "oking": 8681,
      "Ġindex": 8682,
      "ĠÃī": 8683,
      "Ġinvestigation": 8684,
      "ĠGriff": 8685,
      "Ġfest": 8686,
      "Ġhired": 8687,
      "unch": 8688,
      "otton": 8689,
      "isting": 8690,
      "ĠPot": 8691,
      "Ġstored": 8692,
      "ĠGib": 8693,
      "Ġsections": 8694,
      "Ġcann": 8695,
      "ugosl": 8696,
      "Cont": 8697,
      "Ġartificial": 8698,
      "Ġoperates": 8699,
      "Ġexperiences": 8700,
      "Ġpredec": 8701,
      "Ġmolecular": 8702,
      "Ġsynthesis": 8703,
      "Ġabolished": 8704,
      "bat": 8705,
      "hard": 8706,
      "mes": 8707,
      "ivation": 8708,
      "ivated": 8709,
      "Ġstick": 8710,
      "Ġvoting": 8711,
      "ricted": 8712,
      "Ġapply": 8713,
      "Ġstands": 8714,
      "Ġlimits": 8715,
      "ipping": 8716,
      "Ġgrant": 8717,
      "Ġsituated": 8718,
      "ĠBahÃ¡": 8719,
      "ĠNapoleon": 8720,
      "Bo": 8721,
      "uilt": 8722,
      "ĠÂ°": 8723,
      "Ġcave": 8724,
      "Ġhorses": 8725,
      "idency": 8726,
      "ĠDown": 8727,
      "ĠNon": 8728,
      "International": 8729,
      "Ġsyll": 8730,
      "ĠPrim": 8731,
      "Ġguest": 8732,
      "Ġjustice": 8733,
      "ĠTwilight": 8734,
      "Ġinser": 8735,
      "ationally": 8736,
      "unte": 8737,
      "ĠDyn": 8738,
      "ĠEric": 8739,
      "ĠKal": 8740,
      "techn": 8741,
      "ensis": 8742,
      "Ġaged": 8743,
      "ĠDeath": 8744,
      "1993": 8745,
      "Ġeverything": 8746,
      "Ġcoins": 8747,
      "Ġconnections": 8748,
      "stances": 8749,
      "Ġnone": 8750,
      "ĠHud": 8751,
      "ĠGarden": 8752,
      "Ġproof": 8753,
      "Ġranges": 8754,
      "oked": 8755,
      "orship": 8756,
      "Ġ56": 8757,
      "Ġplayw": 8758,
      "argo": 8759,
      "ĠZh": 8760,
      "Ġerror": 8761,
      "Ġfunctional": 8762,
      "Ġhomes": 8763,
      "brid": 8764,
      "cow": 8765,
      "eric": 8766,
      "Ġcul": 8767,
      "ĠCirc": 8768,
      "ĠHop": 8769,
      "umed": 8770,
      "Ġconvention": 8771,
      "ĠDaily": 8772,
      "riot": 8773,
      "odies": 8774,
      "ifican": 8775,
      "Ġtrains": 8776,
      "type": 8777,
      "auer": 8778,
      "Ġ1935": 8779,
      "Ġidentical": 8780,
      "Ġarranged": 8781,
      "ĠAlbania": 8782,
      "Ġreplacement": 8783,
      "ĠArizona": 8784,
      "ĠDirector": 8785,
      "ĠDouglas": 8786,
      "ificance": 8787,
      "fish": 8788,
      "Ã«": 8789,
      "Ġbread": 8790,
      "ĠGab": 8791,
      "ĠLud": 8792,
      "ĠLive": 8793,
      "Ġdisorders": 8794,
      "Ġconstell": 8795,
      "Ġfactory": 8796,
      "Ġrounds": 8797,
      "Ġprobability": 8798,
      "Ġintegrated": 8799,
      "ĠConfeder": 8800,
      "Ġprisoners": 8801,
      "hisatt": 8802,
      "ĠTajikistan": 8803,
      "ĠFrederick": 8804,
      "gi": 8805,
      "mouth": 8806,
      "uits": 8807,
      "Ġhole": 8808,
      "olves": 8809,
      "rene": 8810,
      "Ġprofession": 8811,
      "ĠRecord": 8812,
      "Ġconquest": 8813,
      "ĠTestament": 8814,
      "ĠTaiwan": 8815,
      "Res": 8816,
      "iations": 8817,
      "iology": 8818,
      "Ġahead": 8819,
      "Ġreally": 8820,
      "ĠSky": 8821,
      "ĠCur": 8822,
      "ista": 8823,
      "umen": 8824,
      "ĠLanguage": 8825,
      "ripp": 8826,
      "ewhere": 8827,
      "2016": 8828,
      "Ġmetals": 8829,
      "Ġsurf": 8830,
      "ĠGermans": 8831,
      "ĠAdvent": 8832,
      "Ġdepicted": 8833,
      "Ġdrives": 8834,
      "Ġrestored": 8835,
      "Ġsecure": 8836,
      "ĠCambodia": 8837,
      "Ġeye": 8838,
      "Ġdeployed": 8839,
      "gomery": 8840,
      "Ġcourses": 8841,
      "Ġrect": 8842,
      "rium": 8843,
      "ĠAndre": 8844,
      "Ġphysician": 8845,
      "Ġswitch": 8846,
      "Ġneutron": 8847,
      "140": 8848,
      "Fran": 8849,
      "Te": 8850,
      "xual": 8851,
      "Ġske": 8852,
      "Ġmart": 8853,
      "Ġ140": 8854,
      "cted": 8855,
      "ĠBand": 8856,
      "ĠLog": 8857,
      "season": 8858,
      "ears": 8859,
      "Ġju": 8860,
      "Ġaccum": 8861,
      "ĠAntar": 8862,
      "Ġresponsibility": 8863,
      "Ġcandidates": 8864,
      "ĠAjax": 8865,
      "Air": 8866,
      "Ġsamples": 8867,
      "ĠPy": 8868,
      "Ġ1916": 8869,
      "ubble": 8870,
      "Ġsimultane": 8871,
      "Ġindicates": 8872,
      "Ġcontinuing": 8873,
      "aturally": 8874,
      "Ġrecovery": 8875,
      "Ġcomprehensive": 8876,
      "ĠHouston": 8877,
      "uations": 8878,
      "Ġlayer": 8879,
      "Ġnut": 8880,
      "ĠMend": 8881,
      "apore": 8882,
      "Ġ54": 8883,
      "Ġreceives": 8884,
      "Ġtempor": 8885,
      "Ġexecution": 8886,
      "Ġvariations": 8887,
      "Ġvillages": 8888,
      "Ġeasy": 8889,
      "Ġexperimental": 8890,
      "Ġclinical": 8891,
      "Ġconsciousness": 8892,
      "Ġintellectual": 8893,
      "Ġopinion": 8894,
      "ĠArsenal": 8895,
      "Ðµ": 8896,
      "enburg": 8897,
      "ĠBishop": 8898,
      "ĠMethod": 8899,
      "ĠRun": 8900,
      "ĠLow": 8901,
      "iece": 8902,
      "Ġworship": 8903,
      "Ġmetaph": 8904,
      "Ġinstructions": 8905,
      "Ġfollowers": 8906,
      "1994": 8907,
      "Ġaffairs": 8908,
      "Ġrepresentative": 8909,
      "Ġclaiming": 8910,
      "ĠCrown": 8911,
      "Ġoccupation": 8912,
      "ĠDefence": 8913,
      "Ġdistinguished": 8914,
      "Ġappropriate": 8915,
      "Ġimprison": 8916,
      "onomy": 8917,
      "atab": 8918,
      "Ġbes": 8919,
      "Ġbones": 8920,
      "ĠSymph": 8921,
      "Ġnoun": 8922,
      "ĠBened": 8923,
      "ĠDun": 8924,
      "Ġsees": 8925,
      "Ġspending": 8926,
      "Ġdefine": 8927,
      "Ġinfluences": 8928,
      "ictionary": 8929,
      "Ġbeliefs": 8930,
      "Ġshooting": 8931,
      "zo": 8932,
      "orous": 8933,
      "Ġconvert": 8934,
      "quir": 8935,
      "ĠAlt": 8936,
      "wegian": 8937,
      "ĠYugosl": 8938,
      "Ġflame": 8939,
      "Ġentities": 8940,
      "Ġtrig": 8941,
      "Ġruling": 8942,
      "Ġbusinesses": 8943,
      "ĠÃĹ": 8944,
      "Ġcandy": 8945,
      "Ġordinary": 8946,
      "enaissance": 8947,
      "Ġregistered": 8948,
      "Modern": 8949,
      "No": 8950,
      "mel": 8951,
      "Ġpup": 8952,
      "ĠProp": 8953,
      "ĠHu": 8954,
      "ĠHead": 8955,
      "Ġsubur": 8956,
      "elson": 8957,
      "Ġpassage": 8958,
      "Ġcharacteristic": 8959,
      "Ġactivist": 8960,
      "Ġelse": 8961,
      "ĠYears": 8962,
      "ĠCopenhagen": 8963,
      "Ġcrops": 8964,
      "However": 8965,
      "ĠGordon": 8966,
      "haus": 8967,
      "real": 8968,
      "ania": 8969,
      "ĠSay": 8970,
      "Ġ(;": 8971,
      "Ġpoliticians": 8972,
      "Ġconsistent": 8973,
      "mediate": 8974,
      "ĠAuthor": 8975,
      "ĠEngineering": 8976,
      "sim": 8977,
      "Ġaired": 8978,
      "Ġfat": 8979,
      "ĠSoutheast": 8980,
      "ĠCru": 8981,
      "Ġgender": 8982,
      "Ġbeings": 8983,
      "atters": 8984,
      "Ġdriving": 8985,
      "ĠHarvard": 8986,
      "Ġwider": 8987,
      "Ġgrounds": 8988,
      "ĠControl": 8989,
      "Ġeliminated": 8990,
      "onymous": 8991,
      "ĠHitler": 8992,
      "vens": 8993,
      "Ġfictional": 8994,
      "aso": 8995,
      "Ġvs": 8996,
      "Ġintention": 8997,
      "Ġempt": 8998,
      "Ġartistic": 8999,
      "Ġmarks": 9000,
      "ĠReserve": 9001,
      "Ġcircuit": 9002,
      "Ġdispute": 9003,
      "Ġclearly": 9004,
      "break": 9005,
      "Ġnarrative": 9006,
      "ĠLower": 9007,
      "outs": 9008,
      "Ġcoe": 9009,
      "Ġcontinent": 9010,
      "Ġinspiration": 9011,
      "Ġtelephone": 9012,
      "ĠApost": 9013,
      "Ġcalculate": 9014,
      "ĠMathem": 9015,
      "Ġencouraged": 9016,
      "?\"": 9017,
      "father": 9018,
      "pine": 9019,
      "Ġped": 9020,
      "Ġloyal": 9021,
      "Ġgiant": 9022,
      "ĠPu": 9023,
      "ĠHerm": 9024,
      "Ġgenome": 9025,
      "Ġbuzz": 9026,
      "Ġbankrupt": 9027,
      "Ġchoose": 9028,
      "Ġscheduled": 9029,
      "Ġarray": 9030,
      "hemistry": 9031,
      "thetic": 9032,
      "ĠAugustus": 9033,
      "Ġradical": 9034,
      "ĠMedic": 9035,
      "ĠAngola": 9036,
      "Ġjudg": 9037,
      "Ġdifficulty": 9038,
      "Ġsurrounded": 9039,
      "Ġdiscussed": 9040,
      "Ġobservations": 9041,
      "Ġmunicipalities": 9042,
      "ĠMongol": 9043,
      "ĠMicrosoft": 9044,
      "ĠBarcelona": 9045,
      "kee": 9046,
      "log": 9047,
      "Ġwine": 9048,
      "ĠAston": 9049,
      "ĠTrad": 9050,
      "ĠHart": 9051,
      "Ġexports": 9052,
      "weight": 9053,
      "ĠBeg": 9054,
      "ĠKarl": 9055,
      "itter": 9056,
      "Ġpseud": 9057,
      "asks": 9058,
      "ulating": 9059,
      "ĠHans": 9060,
      "uma": 9061,
      "ĠInn": 9062,
      "ĠInformation": 9063,
      "Ġshorter": 9064,
      "Ġdepends": 9065,
      "ĠPhoen": 9066,
      "Ġstatue": 9067,
      "intend": 9068,
      "1989": 9069,
      "Ġfrequent": 9070,
      "Ġcataly": 9071,
      "warz": 9072,
      "Ġpraised": 9073,
      "hythm": 9074,
      "din": 9075,
      "Ġtheor": 9076,
      "icial": 9077,
      "Ġrooms": 9078,
      "Ġsciences": 9079,
      "Ġcenters": 9080,
      "iscop": 9081,
      "Ġfinding": 9082,
      "Ġweekly": 9083,
      "1988": 9084,
      "Ġminority": 9085,
      "Ġimplementation": 9086,
      "ĠAlbanian": 9087,
      "Ġseventh": 9088,
      "ĠStaff": 9089,
      "week": 9090,
      "Ġdiff": 9091,
      "Ġdescribing": 9092,
      "1981": 9093,
      "verseas": 9094,
      "ĠMurray": 9095,
      "Ġutil": 9096,
      "Sch": 9097,
      "encing": 9098,
      "uba": 9099,
      "awn": 9100,
      "Ġdefence": 9101,
      "ĠWindows": 9102,
      "antasy": 9103,
      "Ġseeds": 9104,
      "Ġabb": 9105,
      "Ġabund": 9106,
      "Ġalliance": 9107,
      "ĠEncyclop": 9108,
      "Ġpharm": 9109,
      "Ġfamiliar": 9110,
      "Ġapproaches": 9111,
      "ĠGreeks": 9112,
      "ĠEarl": 9113,
      "ĠNorway": 9114,
      "ĠLegisl": 9115,
      "ĠJosÃ©": 9116,
      "Ġisolated": 9117,
      "ĠFriedrich": 9118,
      "esh": 9119,
      "Ġflying": 9120,
      "ĠSher": 9121,
      "Ġperceived": 9122,
      "Ġpartially": 9123,
      "Ġapproval": 9124,
      "Ġevening": 9125,
      "Ġpatent": 9126,
      "Ġhosts": 9127,
      "ĠMichigan": 9128,
      "Ġemphasis": 9129,
      "icillin": 9130,
      "chen": 9131,
      "isk": 9132,
      "ĠPict": 9133,
      "Ġhence": 9134,
      "Ġresidence": 9135,
      "Ġphone": 9136,
      "Ġflights": 9137,
      "Ġ747": 9138,
      "Ġdriven": 9139,
      "Ġangular": 9140,
      "Ġdrawing": 9141,
      "Ġprecip": 9142,
      "rection": 9143,
      "Ġgarden": 9144,
      "ĠHere": 9145,
      "ĠDisc": 9146,
      "essional": 9147,
      "Ġrecre": 9148,
      "erto": 9149,
      "Ġanthem": 9150,
      "ennium": 9151,
      "Ġtourist": 9152,
      "Ġbringing": 9153,
      "Ġgirl": 9154,
      "negie": 9155,
      "Ġillegal": 9156,
      "Each": 9157,
      "zep": 9158,
      "iture": 9159,
      "Ġbrig": 9160,
      "Ġfishing": 9161,
      "ĠAB": 9162,
      "ĠNag": 9163,
      "iffer": 9164,
      "Ġorganisation": 9165,
      "unei": 9166,
      "Ġargue": 9167,
      "Ġgrade": 9168,
      "Ġparticipate": 9169,
      "ĠMountain": 9170,
      "ĠBengal": 9171,
      "ĠAffairs": 9172,
      "vo": 9173,
      "aran": 9174,
      "Ġfired": 9175,
      "Ġmemb": 9176,
      "ĠSav": 9177,
      "tha": 9178,
      "Ġdisappe": 9179,
      "Ġ51": 9180,
      "Ġconsult": 9181,
      "Ġrab": 9182,
      "Ġexposed": 9183,
      "Ġrecordings": 9184,
      "Ġtaxes": 9185,
      "Olymp": 9186,
      "Pr": 9187,
      "tr": 9188,
      "Ġtur": 9189,
      "Ġresolution": 9190,
      "Ġmineral": 9191,
      "Ġanniversary": 9192,
      "Ġcollaps": 9193,
      "Ġcomplexity": 9194,
      "Ġplanet": 9195,
      "Ġimmediate": 9196,
      "Ġchallenge": 9197,
      "Ġattracted": 9198,
      "ĠChaplin": 9199,
      "Ġdiplomatic": 9200,
      "ĠFurthermore": 9201,
      "ĠCaptain": 9202,
      "360": 9203,
      "AN": 9204,
      "sch": 9205,
      "ĠCow": 9206,
      "eline": 9207,
      "oto": 9208,
      "Ġ1880": 9209,
      "Ġ800": 9210,
      "Ġowners": 9211,
      "1600": 9212,
      "ĠChristopher": 9213,
      "Ġskills": 9214,
      "ĠHeritage": 9215,
      "ĠSingapore": 9216,
      "compass": 9217,
      "Ġunsuccess": 9218,
      "dy": 9219,
      "uv": 9220,
      "idae": 9221,
      "ĠRoy": 9222,
      "ĠFive": 9223,
      "agne": 9224,
      "rik": 9225,
      "ĠKer": 9226,
      "Ġdecisions": 9227,
      "ĠIsa": 9228,
      "Ġstructural": 9229,
      "Ġ1908": 9230,
      "Ġmerely": 9231,
      "Ġpredict": 9232,
      "Ġtribe": 9233,
      "Ġapparently": 9234,
      "Ġdeposits": 9235,
      "Ġvertical": 9236,
      "IS": 9237,
      "Sw": 9238,
      "Ġmob": 9239,
      "ĠAinu": 9240,
      "ĠBure": 9241,
      "ĠPed": 9242,
      "ractions": 9243,
      "Ġstopped": 9244,
      "ĠJam": 9245,
      "Ġ46": 9246,
      "orney": 9247,
      "ĠWhit": 9248,
      "ĠReal": 9249,
      "ĠRomanian": 9250,
      "Ġreforms": 9251,
      "Ġvarying": 9252,
      "Ġpartners": 9253,
      "Ġentertainment": 9254,
      "do": 9255,
      "Ġwings": 9256,
      "Ġbonds": 9257,
      "Ġeats": 9258,
      "ethe": 9259,
      "otype": 9260,
      "ĠRab": 9261,
      "Ġmoves": 9262,
      "Ġsignificance": 9263,
      "Reg": 9264,
      "ĠPrincip": 9265,
      "Ġfinds": 9266,
      "Ġwheel": 9267,
      "ĠArchae": 9268,
      "Ġspectrum": 9269,
      "ennessee": 9270,
      "Ġdioxide": 9271,
      "ĠDocumentary": 9272,
      "OR": 9273,
      "ĠSyn": 9274,
      "ĠRav": 9275,
      "ĠDark": 9276,
      "ĠLo": 9277,
      "Ġadmitted": 9278,
      "2020": 9279,
      "Ġcalendar": 9280,
      "Ġliberal": 9281,
      "Ġefficient": 9282,
      "Ġgeometry": 9283,
      "ĠBangladesh": 9284,
      "bird": 9285,
      "free": 9286,
      "vas": 9287,
      "star": 9288,
      "utor": 9289,
[...]
